#ifndef __REFERENCE_ONNX__
#define __REFERENCE_ONNX__

unsigned char reference_onnx[] = {
    0x08, 0x05, 0x12, 0x07, 0x74, 0x66, 0x32, 0x6f, 0x6e, 0x6e, 0x78, 0x1a,
    0x0d, 0x31, 0x2e, 0x31, 0x34, 0x2e, 0x30, 0x20, 0x38, 0x66, 0x38, 0x64,
    0x34, 0x39, 0x3a, 0xfc, 0x79, 0x0a, 0xdf, 0x02, 0x0a, 0x21, 0x73, 0x65,
    0x72, 0x76, 0x69, 0x6e, 0x67, 0x5f, 0x64, 0x65, 0x66, 0x61, 0x75, 0x6c,
    0x74, 0x5f, 0x63, 0x6f, 0x6e, 0x76, 0x32, 0x64, 0x5f, 0x31, 0x35, 0x5f,
    0x69, 0x6e, 0x70, 0x75, 0x74, 0x3a, 0x30, 0x0a, 0x0d, 0x6e, 0x65, 0x77,
    0x5f, 0x73, 0x68, 0x61, 0x70, 0x65, 0x5f, 0x5f, 0x31, 0x35, 0x12, 0x8f,
    0x01, 0x73, 0x65, 0x71, 0x75, 0x65, 0x6e, 0x74, 0x69, 0x61, 0x6c, 0x5f,
    0x31, 0x32, 0x2f, 0x63, 0x6f, 0x6e, 0x76, 0x32, 0x64, 0x5f, 0x31, 0x35,
    0x2f, 0x52, 0x65, 0x6c, 0x75, 0x3b, 0x73, 0x65, 0x71, 0x75, 0x65, 0x6e,
    0x74, 0x69, 0x61, 0x6c, 0x5f, 0x31, 0x32, 0x2f, 0x63, 0x6f, 0x6e, 0x76,
    0x32, 0x64, 0x5f, 0x31, 0x35, 0x2f, 0x42, 0x69, 0x61, 0x73, 0x41, 0x64,
    0x64, 0x3b, 0x73, 0x65, 0x71, 0x75, 0x65, 0x6e, 0x74, 0x69, 0x61, 0x6c,
    0x5f, 0x31, 0x32, 0x2f, 0x63, 0x6f, 0x6e, 0x76, 0x32, 0x64, 0x5f, 0x31,
    0x35, 0x2f, 0x42, 0x69, 0x61, 0x73, 0x41, 0x64, 0x64, 0x2f, 0x52, 0x65,
    0x61, 0x64, 0x56, 0x61, 0x72, 0x69, 0x61, 0x62, 0x6c, 0x65, 0x4f, 0x70,
    0x3b, 0x73, 0x65, 0x71, 0x75, 0x65, 0x6e, 0x74, 0x69, 0x61, 0x6c, 0x5f,
    0x31, 0x32, 0x2f, 0x63, 0x6f, 0x6e, 0x76, 0x32, 0x64, 0x5f, 0x31, 0x35,
    0x2f, 0x43, 0x6f, 0x6e, 0x76, 0x32, 0x44, 0x5f, 0x5f, 0x39, 0x3a, 0x30,
    0x1a, 0x8d, 0x01, 0x73, 0x65, 0x71, 0x75, 0x65, 0x6e, 0x74, 0x69, 0x61,
    0x6c, 0x5f, 0x31, 0x32, 0x2f, 0x63, 0x6f, 0x6e, 0x76, 0x32, 0x64, 0x5f,
    0x31, 0x35, 0x2f, 0x52, 0x65, 0x6c, 0x75, 0x3b, 0x73, 0x65, 0x71, 0x75,
    0x65, 0x6e, 0x74, 0x69, 0x61, 0x6c, 0x5f, 0x31, 0x32, 0x2f, 0x63, 0x6f,
    0x6e, 0x76, 0x32, 0x64, 0x5f, 0x31, 0x35, 0x2f, 0x42, 0x69, 0x61, 0x73,
    0x41, 0x64, 0x64, 0x3b, 0x73, 0x65, 0x71, 0x75, 0x65, 0x6e, 0x74, 0x69,
    0x61, 0x6c, 0x5f, 0x31, 0x32, 0x2f, 0x63, 0x6f, 0x6e, 0x76, 0x32, 0x64,
    0x5f, 0x31, 0x35, 0x2f, 0x42, 0x69, 0x61, 0x73, 0x41, 0x64, 0x64, 0x2f,
    0x52, 0x65, 0x61, 0x64, 0x56, 0x61, 0x72, 0x69, 0x61, 0x62, 0x6c, 0x65,
    0x4f, 0x70, 0x3b, 0x73, 0x65, 0x71, 0x75, 0x65, 0x6e, 0x74, 0x69, 0x61,
    0x6c, 0x5f, 0x31, 0x32, 0x2f, 0x63, 0x6f, 0x6e, 0x76, 0x32, 0x64, 0x5f,
    0x31, 0x35, 0x2f, 0x43, 0x6f, 0x6e, 0x76, 0x32, 0x44, 0x5f, 0x5f, 0x39,
    0x22, 0x07, 0x52, 0x65, 0x73, 0x68, 0x61, 0x70, 0x65, 0x3a, 0x00, 0x0a,
    0xc1, 0x04, 0x0a, 0x8f, 0x01, 0x73, 0x65, 0x71, 0x75, 0x65, 0x6e, 0x74,
    0x69, 0x61, 0x6c, 0x5f, 0x31, 0x32, 0x2f, 0x63, 0x6f, 0x6e, 0x76, 0x32,
    0x64, 0x5f, 0x31, 0x35, 0x2f, 0x52, 0x65, 0x6c, 0x75, 0x3b, 0x73, 0x65,
    0x71, 0x75, 0x65, 0x6e, 0x74, 0x69, 0x61, 0x6c, 0x5f, 0x31, 0x32, 0x2f,
    0x63, 0x6f, 0x6e, 0x76, 0x32, 0x64, 0x5f, 0x31, 0x35, 0x2f, 0x42, 0x69,
    0x61, 0x73, 0x41, 0x64, 0x64, 0x3b, 0x73, 0x65, 0x71, 0x75, 0x65, 0x6e,
    0x74, 0x69, 0x61, 0x6c, 0x5f, 0x31, 0x32, 0x2f, 0x63, 0x6f, 0x6e, 0x76,
    0x32, 0x64, 0x5f, 0x31, 0x35, 0x2f, 0x42, 0x69, 0x61, 0x73, 0x41, 0x64,
    0x64, 0x2f, 0x52, 0x65, 0x61, 0x64, 0x56, 0x61, 0x72, 0x69, 0x61, 0x62,
    0x6c, 0x65, 0x4f, 0x70, 0x3b, 0x73, 0x65, 0x71, 0x75, 0x65, 0x6e, 0x74,
    0x69, 0x61, 0x6c, 0x5f, 0x31, 0x32, 0x2f, 0x63, 0x6f, 0x6e, 0x76, 0x32,
    0x64, 0x5f, 0x31, 0x35, 0x2f, 0x43, 0x6f, 0x6e, 0x76, 0x32, 0x44, 0x5f,
    0x5f, 0x39, 0x3a, 0x30, 0x0a, 0x12, 0x63, 0x6f, 0x6e, 0x73, 0x74, 0x5f,
    0x66, 0x6f, 0x6c, 0x64, 0x5f, 0x6f, 0x70, 0x74, 0x5f, 0x5f, 0x31, 0x39,
    0x0a, 0x2e, 0x73, 0x65, 0x71, 0x75, 0x65, 0x6e, 0x74, 0x69, 0x61, 0x6c,
    0x5f, 0x31, 0x32, 0x2f, 0x63, 0x6f, 0x6e, 0x76, 0x32, 0x64, 0x5f, 0x31,
    0x35, 0x2f, 0x42, 0x69, 0x61, 0x73, 0x41, 0x64, 0x64, 0x2f, 0x52, 0x65,
    0x61, 0x64, 0x56, 0x61, 0x72, 0x69, 0x61, 0x62, 0x6c, 0x65, 0x4f, 0x70,
    0x12, 0x8a, 0x01, 0x73, 0x65, 0x71, 0x75, 0x65, 0x6e, 0x74, 0x69, 0x61,
    0x6c, 0x5f, 0x31, 0x32, 0x2f, 0x63, 0x6f, 0x6e, 0x76, 0x32, 0x64, 0x5f,
    0x31, 0x35, 0x2f, 0x52, 0x65, 0x6c, 0x75, 0x3b, 0x73, 0x65, 0x71, 0x75,
    0x65, 0x6e, 0x74, 0x69, 0x61, 0x6c, 0x5f, 0x31, 0x32, 0x2f, 0x63, 0x6f,
    0x6e, 0x76, 0x32, 0x64, 0x5f, 0x31, 0x35, 0x2f, 0x42, 0x69, 0x61, 0x73,
    0x41, 0x64, 0x64, 0x3b, 0x73, 0x65, 0x71, 0x75, 0x65, 0x6e, 0x74, 0x69,
    0x61, 0x6c, 0x5f, 0x31, 0x32, 0x2f, 0x63, 0x6f, 0x6e, 0x76, 0x32, 0x64,
    0x5f, 0x31, 0x35, 0x2f, 0x42, 0x69, 0x61, 0x73, 0x41, 0x64, 0x64, 0x2f,
    0x52, 0x65, 0x61, 0x64, 0x56, 0x61, 0x72, 0x69, 0x61, 0x62, 0x6c, 0x65,
    0x4f, 0x70, 0x3b, 0x73, 0x65, 0x71, 0x75, 0x65, 0x6e, 0x74, 0x69, 0x61,
    0x6c, 0x5f, 0x31, 0x32, 0x2f, 0x63, 0x6f, 0x6e, 0x76, 0x32, 0x64, 0x5f,
    0x31, 0x35, 0x2f, 0x43, 0x6f, 0x6e, 0x76, 0x32, 0x44, 0x1a, 0x8a, 0x01,
    0x73, 0x65, 0x71, 0x75, 0x65, 0x6e, 0x74, 0x69, 0x61, 0x6c, 0x5f, 0x31,
    0x32, 0x2f, 0x63, 0x6f, 0x6e, 0x76, 0x32, 0x64, 0x5f, 0x31, 0x35, 0x2f,
    0x52, 0x65, 0x6c, 0x75, 0x3b, 0x73, 0x65, 0x71, 0x75, 0x65, 0x6e, 0x74,
    0x69, 0x61, 0x6c, 0x5f, 0x31, 0x32, 0x2f, 0x63, 0x6f, 0x6e, 0x76, 0x32,
    0x64, 0x5f, 0x31, 0x35, 0x2f, 0x42, 0x69, 0x61, 0x73, 0x41, 0x64, 0x64,
    0x3b, 0x73, 0x65, 0x71, 0x75, 0x65, 0x6e, 0x74, 0x69, 0x61, 0x6c, 0x5f,
    0x31, 0x32, 0x2f, 0x63, 0x6f, 0x6e, 0x76, 0x32, 0x64, 0x5f, 0x31, 0x35,
    0x2f, 0x42, 0x69, 0x61, 0x73, 0x41, 0x64, 0x64, 0x2f, 0x52, 0x65, 0x61,
    0x64, 0x56, 0x61, 0x72, 0x69, 0x61, 0x62, 0x6c, 0x65, 0x4f, 0x70, 0x3b,
    0x73, 0x65, 0x71, 0x75, 0x65, 0x6e, 0x74, 0x69, 0x61, 0x6c, 0x5f, 0x31,
    0x32, 0x2f, 0x63, 0x6f, 0x6e, 0x76, 0x32, 0x64, 0x5f, 0x31, 0x35, 0x2f,
    0x43, 0x6f, 0x6e, 0x76, 0x32, 0x44, 0x22, 0x04, 0x43, 0x6f, 0x6e, 0x76,
    0x2a, 0x10, 0x0a, 0x07, 0x73, 0x74, 0x72, 0x69, 0x64, 0x65, 0x73, 0x40,
    0x01, 0x40, 0x01, 0xa0, 0x01, 0x07, 0x2a, 0x12, 0x0a, 0x09, 0x64, 0x69,
    0x6c, 0x61, 0x74, 0x69, 0x6f, 0x6e, 0x73, 0x40, 0x01, 0x40, 0x01, 0xa0,
    0x01, 0x07, 0x2a, 0x15, 0x0a, 0x0c, 0x6b, 0x65, 0x72, 0x6e, 0x65, 0x6c,
    0x5f, 0x73, 0x68, 0x61, 0x70, 0x65, 0x40, 0x03, 0x40, 0x03, 0xa0, 0x01,
    0x07, 0x2a, 0x0c, 0x0a, 0x05, 0x67, 0x72, 0x6f, 0x75, 0x70, 0x18, 0x01,
    0xa0, 0x01, 0x02, 0x0a, 0xa7, 0x01, 0x0a, 0x8a, 0x01, 0x73, 0x65, 0x71,
    0x75, 0x65, 0x6e, 0x74, 0x69, 0x61, 0x6c, 0x5f, 0x31, 0x32, 0x2f, 0x63,
    0x6f, 0x6e, 0x76, 0x32, 0x64, 0x5f, 0x31, 0x35, 0x2f, 0x52, 0x65, 0x6c,
    0x75, 0x3b, 0x73, 0x65, 0x71, 0x75, 0x65, 0x6e, 0x74, 0x69, 0x61, 0x6c,
    0x5f, 0x31, 0x32, 0x2f, 0x63, 0x6f, 0x6e, 0x76, 0x32, 0x64, 0x5f, 0x31,
    0x35, 0x2f, 0x42, 0x69, 0x61, 0x73, 0x41, 0x64, 0x64, 0x3b, 0x73, 0x65,
    0x71, 0x75, 0x65, 0x6e, 0x74, 0x69, 0x61, 0x6c, 0x5f, 0x31, 0x32, 0x2f,
    0x63, 0x6f, 0x6e, 0x76, 0x32, 0x64, 0x5f, 0x31, 0x35, 0x2f, 0x42, 0x69,
    0x61, 0x73, 0x41, 0x64, 0x64, 0x2f, 0x52, 0x65, 0x61, 0x64, 0x56, 0x61,
    0x72, 0x69, 0x61, 0x62, 0x6c, 0x65, 0x4f, 0x70, 0x3b, 0x73, 0x65, 0x71,
    0x75, 0x65, 0x6e, 0x74, 0x69, 0x61, 0x6c, 0x5f, 0x31, 0x32, 0x2f, 0x63,
    0x6f, 0x6e, 0x76, 0x32, 0x64, 0x5f, 0x31, 0x35, 0x2f, 0x43, 0x6f, 0x6e,
    0x76, 0x32, 0x44, 0x12, 0x09, 0x52, 0x65, 0x6c, 0x75, 0x5f, 0x5f, 0x35,
    0x3a, 0x30, 0x1a, 0x07, 0x52, 0x65, 0x6c, 0x75, 0x5f, 0x5f, 0x35, 0x22,
    0x04, 0x52, 0x65, 0x6c, 0x75, 0x0a, 0xcd, 0x02, 0x0a, 0x09, 0x52, 0x65,
    0x6c, 0x75, 0x5f, 0x5f, 0x35, 0x3a, 0x30, 0x12, 0x90, 0x01, 0x73, 0x65,
    0x71, 0x75, 0x65, 0x6e, 0x74, 0x69, 0x61, 0x6c, 0x5f, 0x31, 0x32, 0x2f,
    0x63, 0x6f, 0x6e, 0x76, 0x32, 0x64, 0x5f, 0x31, 0x35, 0x2f, 0x52, 0x65,
    0x6c, 0x75, 0x3b, 0x73, 0x65, 0x71, 0x75, 0x65, 0x6e, 0x74, 0x69, 0x61,
    0x6c, 0x5f, 0x31, 0x32, 0x2f, 0x63, 0x6f, 0x6e, 0x76, 0x32, 0x64, 0x5f,
    0x31, 0x35, 0x2f, 0x42, 0x69, 0x61, 0x73, 0x41, 0x64, 0x64, 0x3b, 0x73,
    0x65, 0x71, 0x75, 0x65, 0x6e, 0x74, 0x69, 0x61, 0x6c, 0x5f, 0x31, 0x32,
    0x2f, 0x63, 0x6f, 0x6e, 0x76, 0x32, 0x64, 0x5f, 0x31, 0x35, 0x2f, 0x42,
    0x69, 0x61, 0x73, 0x41, 0x64, 0x64, 0x2f, 0x52, 0x65, 0x61, 0x64, 0x56,
    0x61, 0x72, 0x69, 0x61, 0x62, 0x6c, 0x65, 0x4f, 0x70, 0x3b, 0x73, 0x65,
    0x71, 0x75, 0x65, 0x6e, 0x74, 0x69, 0x61, 0x6c, 0x5f, 0x31, 0x32, 0x2f,
    0x63, 0x6f, 0x6e, 0x76, 0x32, 0x64, 0x5f, 0x31, 0x35, 0x2f, 0x43, 0x6f,
    0x6e, 0x76, 0x32, 0x44, 0x5f, 0x5f, 0x31, 0x32, 0x3a, 0x30, 0x1a, 0x8e,
    0x01, 0x73, 0x65, 0x71, 0x75, 0x65, 0x6e, 0x74, 0x69, 0x61, 0x6c, 0x5f,
    0x31, 0x32, 0x2f, 0x63, 0x6f, 0x6e, 0x76, 0x32, 0x64, 0x5f, 0x31, 0x35,
    0x2f, 0x52, 0x65, 0x6c, 0x75, 0x3b, 0x73, 0x65, 0x71, 0x75, 0x65, 0x6e,
    0x74, 0x69, 0x61, 0x6c, 0x5f, 0x31, 0x32, 0x2f, 0x63, 0x6f, 0x6e, 0x76,
    0x32, 0x64, 0x5f, 0x31, 0x35, 0x2f, 0x42, 0x69, 0x61, 0x73, 0x41, 0x64,
    0x64, 0x3b, 0x73, 0x65, 0x71, 0x75, 0x65, 0x6e, 0x74, 0x69, 0x61, 0x6c,
    0x5f, 0x31, 0x32, 0x2f, 0x63, 0x6f, 0x6e, 0x76, 0x32, 0x64, 0x5f, 0x31,
    0x35, 0x2f, 0x42, 0x69, 0x61, 0x73, 0x41, 0x64, 0x64, 0x2f, 0x52, 0x65,
    0x61, 0x64, 0x56, 0x61, 0x72, 0x69, 0x61, 0x62, 0x6c, 0x65, 0x4f, 0x70,
    0x3b, 0x73, 0x65, 0x71, 0x75, 0x65, 0x6e, 0x74, 0x69, 0x61, 0x6c, 0x5f,
    0x31, 0x32, 0x2f, 0x63, 0x6f, 0x6e, 0x76, 0x32, 0x64, 0x5f, 0x31, 0x35,
    0x2f, 0x43, 0x6f, 0x6e, 0x76, 0x32, 0x44, 0x5f, 0x5f, 0x31, 0x32, 0x22,
    0x09, 0x54, 0x72, 0x61, 0x6e, 0x73, 0x70, 0x6f, 0x73, 0x65, 0x2a, 0x11,
    0x0a, 0x04, 0x70, 0x65, 0x72, 0x6d, 0x40, 0x00, 0x40, 0x02, 0x40, 0x03,
    0x40, 0x01, 0xa0, 0x01, 0x07, 0x0a, 0xf2, 0x01, 0x0a, 0x90, 0x01, 0x73,
    0x65, 0x71, 0x75, 0x65, 0x6e, 0x74, 0x69, 0x61, 0x6c, 0x5f, 0x31, 0x32,
    0x2f, 0x63, 0x6f, 0x6e, 0x76, 0x32, 0x64, 0x5f, 0x31, 0x35, 0x2f, 0x52,
    0x65, 0x6c, 0x75, 0x3b, 0x73, 0x65, 0x71, 0x75, 0x65, 0x6e, 0x74, 0x69,
    0x61, 0x6c, 0x5f, 0x31, 0x32, 0x2f, 0x63, 0x6f, 0x6e, 0x76, 0x32, 0x64,
    0x5f, 0x31, 0x35, 0x2f, 0x42, 0x69, 0x61, 0x73, 0x41, 0x64, 0x64, 0x3b,
    0x73, 0x65, 0x71, 0x75, 0x65, 0x6e, 0x74, 0x69, 0x61, 0x6c, 0x5f, 0x31,
    0x32, 0x2f, 0x63, 0x6f, 0x6e, 0x76, 0x32, 0x64, 0x5f, 0x31, 0x35, 0x2f,
    0x42, 0x69, 0x61, 0x73, 0x41, 0x64, 0x64, 0x2f, 0x52, 0x65, 0x61, 0x64,
    0x56, 0x61, 0x72, 0x69, 0x61, 0x62, 0x6c, 0x65, 0x4f, 0x70, 0x3b, 0x73,
    0x65, 0x71, 0x75, 0x65, 0x6e, 0x74, 0x69, 0x61, 0x6c, 0x5f, 0x31, 0x32,
    0x2f, 0x63, 0x6f, 0x6e, 0x76, 0x32, 0x64, 0x5f, 0x31, 0x35, 0x2f, 0x43,
    0x6f, 0x6e, 0x76, 0x32, 0x44, 0x5f, 0x5f, 0x31, 0x32, 0x3a, 0x30, 0x0a,
    0x12, 0x63, 0x6f, 0x6e, 0x73, 0x74, 0x5f, 0x66, 0x6f, 0x6c, 0x64, 0x5f,
    0x6f, 0x70, 0x74, 0x5f, 0x5f, 0x31, 0x36, 0x12, 0x1f, 0x73, 0x65, 0x71,
    0x75, 0x65, 0x6e, 0x74, 0x69, 0x61, 0x6c, 0x5f, 0x31, 0x32, 0x2f, 0x66,
    0x6c, 0x61, 0x74, 0x74, 0x65, 0x6e, 0x5f, 0x38, 0x2f, 0x52, 0x65, 0x73,
    0x68, 0x61, 0x70, 0x65, 0x1a, 0x1f, 0x73, 0x65, 0x71, 0x75, 0x65, 0x6e,
    0x74, 0x69, 0x61, 0x6c, 0x5f, 0x31, 0x32, 0x2f, 0x66, 0x6c, 0x61, 0x74,
    0x74, 0x65, 0x6e, 0x5f, 0x38, 0x2f, 0x52, 0x65, 0x73, 0x68, 0x61, 0x70,
    0x65, 0x22, 0x07, 0x52, 0x65, 0x73, 0x68, 0x61, 0x70, 0x65, 0x0a, 0xb9,
    0x01, 0x0a, 0x1f, 0x73, 0x65, 0x71, 0x75, 0x65, 0x6e, 0x74, 0x69, 0x61,
    0x6c, 0x5f, 0x31, 0x32, 0x2f, 0x66, 0x6c, 0x61, 0x74, 0x74, 0x65, 0x6e,
    0x5f, 0x38, 0x2f, 0x52, 0x65, 0x73, 0x68, 0x61, 0x70, 0x65, 0x0a, 0x12,
    0x63, 0x6f, 0x6e, 0x73, 0x74, 0x5f, 0x66, 0x6f, 0x6c, 0x64, 0x5f, 0x6f,
    0x70, 0x74, 0x5f, 0x5f, 0x31, 0x37, 0x12, 0x3c, 0x73, 0x65, 0x71, 0x75,
    0x65, 0x6e, 0x74, 0x69, 0x61, 0x6c, 0x5f, 0x31, 0x32, 0x2f, 0x64, 0x65,
    0x6e, 0x73, 0x65, 0x5f, 0x31, 0x30, 0x2f, 0x4d, 0x61, 0x74, 0x4d, 0x75,
    0x6c, 0x3b, 0x73, 0x65, 0x71, 0x75, 0x65, 0x6e, 0x74, 0x69, 0x61, 0x6c,
    0x5f, 0x31, 0x32, 0x2f, 0x64, 0x65, 0x6e, 0x73, 0x65, 0x5f, 0x31, 0x30,
    0x2f, 0x42, 0x69, 0x61, 0x73, 0x41, 0x64, 0x64, 0x1a, 0x3c, 0x73, 0x65,
    0x71, 0x75, 0x65, 0x6e, 0x74, 0x69, 0x61, 0x6c, 0x5f, 0x31, 0x32, 0x2f,
    0x64, 0x65, 0x6e, 0x73, 0x65, 0x5f, 0x31, 0x30, 0x2f, 0x4d, 0x61, 0x74,
    0x4d, 0x75, 0x6c, 0x3b, 0x73, 0x65, 0x71, 0x75, 0x65, 0x6e, 0x74, 0x69,
    0x61, 0x6c, 0x5f, 0x31, 0x32, 0x2f, 0x64, 0x65, 0x6e, 0x73, 0x65, 0x5f,
    0x31, 0x30, 0x2f, 0x42, 0x69, 0x61, 0x73, 0x41, 0x64, 0x64, 0x22, 0x06,
    0x4d, 0x61, 0x74, 0x4d, 0x75, 0x6c, 0x0a, 0x8c, 0x01, 0x0a, 0x3c, 0x73,
    0x65, 0x71, 0x75, 0x65, 0x6e, 0x74, 0x69, 0x61, 0x6c, 0x5f, 0x31, 0x32,
    0x2f, 0x64, 0x65, 0x6e, 0x73, 0x65, 0x5f, 0x31, 0x30, 0x2f, 0x4d, 0x61,
    0x74, 0x4d, 0x75, 0x6c, 0x3b, 0x73, 0x65, 0x71, 0x75, 0x65, 0x6e, 0x74,
    0x69, 0x61, 0x6c, 0x5f, 0x31, 0x32, 0x2f, 0x64, 0x65, 0x6e, 0x73, 0x65,
    0x5f, 0x31, 0x30, 0x2f, 0x42, 0x69, 0x61, 0x73, 0x41, 0x64, 0x64, 0x12,
    0x19, 0x53, 0x74, 0x61, 0x74, 0x65, 0x66, 0x75, 0x6c, 0x50, 0x61, 0x72,
    0x74, 0x69, 0x74, 0x69, 0x6f, 0x6e, 0x65, 0x64, 0x43, 0x61, 0x6c, 0x6c,
    0x3a, 0x30, 0x1a, 0x19, 0x53, 0x74, 0x61, 0x74, 0x65, 0x66, 0x75, 0x6c,
    0x50, 0x61, 0x72, 0x74, 0x69, 0x74, 0x69, 0x6f, 0x6e, 0x65, 0x64, 0x43,
    0x61, 0x6c, 0x6c, 0x3a, 0x30, 0x22, 0x07, 0x53, 0x6f, 0x66, 0x74, 0x6d,
    0x61, 0x78, 0x2a, 0x0b, 0x0a, 0x04, 0x61, 0x78, 0x69, 0x73, 0x18, 0x01,
    0xa0, 0x01, 0x02, 0x3a, 0x00, 0x12, 0x07, 0x74, 0x66, 0x32, 0x6f, 0x6e,
    0x6e, 0x78, 0x2a, 0x5e, 0x08, 0x0a, 0x10, 0x01, 0x42, 0x2e, 0x73, 0x65,
    0x71, 0x75, 0x65, 0x6e, 0x74, 0x69, 0x61, 0x6c, 0x5f, 0x31, 0x32, 0x2f,
    0x63, 0x6f, 0x6e, 0x76, 0x32, 0x64, 0x5f, 0x31, 0x35, 0x2f, 0x42, 0x69,
    0x61, 0x73, 0x41, 0x64, 0x64, 0x2f, 0x52, 0x65, 0x61, 0x64, 0x56, 0x61,
    0x72, 0x69, 0x61, 0x62, 0x6c, 0x65, 0x4f, 0x70, 0x4a, 0x28, 0x00, 0x00,
    0x00, 0x00, 0x00, 0x00, 0x00, 0x00, 0x00, 0x00, 0x00, 0x00, 0x00, 0x00,
    0x00, 0x00, 0x00, 0x00, 0x00, 0x00, 0x00, 0x00, 0x00, 0x00, 0x00, 0x00,
    0x00, 0x00, 0x00, 0x00, 0x00, 0x00, 0x00, 0x00, 0x00, 0x00, 0x00, 0x00,
    0x00, 0x00, 0x2a, 0x35, 0x08, 0x04, 0x10, 0x07, 0x42, 0x0d, 0x6e, 0x65,
    0x77, 0x5f, 0x73, 0x68, 0x61, 0x70, 0x65, 0x5f, 0x5f, 0x31, 0x35, 0x4a,
    0x20, 0xff, 0xff, 0xff, 0xff, 0xff, 0xff, 0xff, 0xff, 0x01, 0x00, 0x00,
    0x00, 0x00, 0x00, 0x00, 0x00, 0x0a, 0x00, 0x00, 0x00, 0x00, 0x00, 0x00,
    0x00, 0x0a, 0x00, 0x00, 0x00, 0x00, 0x00, 0x00, 0x00, 0x2a, 0x89, 0x03,
    0x08, 0x0a, 0x08, 0x01, 0x08, 0x03, 0x08, 0x03, 0x10, 0x01, 0x42, 0x12,
    0x63, 0x6f, 0x6e, 0x73, 0x74, 0x5f, 0x66, 0x6f, 0x6c, 0x64, 0x5f, 0x6f,
    0x70, 0x74, 0x5f, 0x5f, 0x31, 0x39, 0x4a, 0xe8, 0x02, 0x22, 0x44, 0x58,
    0x3e, 0x03, 0x3c, 0xfa, 0xbd, 0x70, 0x7d, 0xa3, 0xbc, 0xf8, 0x56, 0x1a,
    0xbe, 0xc0, 0xc1, 0x7e, 0xbd, 0x94, 0xaf, 0x1a, 0xbd, 0x26, 0x6f, 0xc8,
    0xbd, 0x68, 0x9d, 0x30, 0x3d, 0x48, 0x75, 0x0e, 0x3e, 0x10, 0x61, 0x5a,
    0x3d, 0xe2, 0x26, 0x1b, 0x3e, 0xb2, 0x2c, 0x41, 0x3e, 0x68, 0xa9, 0xf4,
    0x3d, 0x4e, 0x1f, 0xeb, 0xbd, 0x04, 0x7d, 0x63, 0xbe, 0xec, 0xb4, 0x2e,
    0xbd, 0xcc, 0xf7, 0x5e, 0xbd, 0x80, 0xc7, 0xfd, 0x3d, 0x78, 0xb4, 0x9b,
    0xbc, 0xa0, 0x12, 0xf6, 0xbd, 0x97, 0x18, 0x1b, 0xbe, 0x92, 0x52, 0x30,
    0x3e, 0x5c, 0x4d, 0x0c, 0xbd, 0xa0, 0x4e, 0x1e, 0xbc, 0x08, 0x80, 0xe0,
    0xbd, 0xe5, 0xce, 0x51, 0xbe, 0x66, 0x8c, 0x49, 0xbe, 0x60, 0x3d, 0x0e,
    0x3c, 0xbe, 0xba, 0xed, 0xbd, 0xc2, 0x27, 0x65, 0xbe, 0xa6, 0xe6, 0x1a,
    0x3e, 0x62, 0xe7, 0x39, 0x3e, 0x34, 0x4e, 0xed, 0xbd, 0x80, 0x5a, 0x01,
    0xbd, 0xe6, 0x59, 0x4d, 0xbe, 0x0e, 0x12, 0x76, 0xbe, 0xba, 0x82, 0x3f,
    0x3e, 0xb2, 0x9c, 0x07, 0x3e, 0x20, 0x68, 0xdf, 0x3c, 0x00, 0xcf, 0x94,
    0x3d, 0x8c, 0x5a, 0x9a, 0x3d, 0x82, 0xb2, 0x09, 0xbe, 0xfa, 0xa5, 0x9f,
    0xbd, 0x7a, 0xf8, 0xde, 0xbd, 0xa8, 0x45, 0xa3, 0x3d, 0x02, 0xb2, 0x18,
    0xbe, 0x50, 0x12, 0x36, 0xbc, 0x1e, 0x5e, 0x4a, 0xbe, 0x56, 0x2a, 0x4e,
    0x3e, 0x45, 0xe6, 0x6e, 0xbe, 0x56, 0xc9, 0x35, 0xbe, 0x8b, 0x6d, 0x34,
    0xbe, 0x6a, 0xca, 0x4f, 0x3e, 0x92, 0xa7, 0x4d, 0x3e, 0x3a, 0x22, 0x32,
    0x3e, 0x4c, 0x5a, 0x2d, 0x3e, 0x90, 0xea, 0xae, 0x3c, 0xbc, 0x5c, 0xa4,
    0x3d, 0xd2, 0xbf, 0x08, 0xbe, 0xd4, 0x17, 0x10, 0xbe, 0xaa, 0xd4, 0x93,
    0xbd, 0x28, 0x36, 0x27, 0xbe, 0xbc, 0x0c, 0x97, 0x3d, 0xf0, 0x98, 0xad,
    0x3c, 0xc6, 0xd7, 0xcf, 0xbd, 0x5c, 0x7f, 0x19, 0xbe, 0x30, 0xb4, 0xda,
    0x3c, 0xca, 0x58, 0x0a, 0xbe, 0x84, 0xeb, 0x67, 0xbd, 0x33, 0xb2, 0x70,
    0xbe, 0xae, 0xe3, 0xdb, 0xbd, 0xc8, 0x2d, 0x90, 0xbd, 0xb0, 0x1a, 0xa8,
    0x3d, 0xda, 0x19, 0x40, 0xbe, 0x1c, 0x92, 0x44, 0xbe, 0xb0, 0xc7, 0xf5,
    0x3d, 0xa8, 0x9b, 0x11, 0xbe, 0xe0, 0xcc, 0xee, 0x3c, 0xb2, 0xc7, 0x27,
    0xbe, 0x08, 0x32, 0x32, 0xbe, 0xbc, 0x58, 0x3d, 0xbe, 0xd6, 0xbd, 0xbf,
    0xbd, 0xc0, 0x45, 0xda, 0x3b, 0x98, 0x3e, 0x39, 0xbd, 0x7e, 0xbd, 0xd7,
    0xbd, 0x00, 0xe9, 0x11, 0x3a, 0xa0, 0x02, 0x4e, 0xbe, 0xb0, 0x97, 0x59,
    0x3d, 0x40, 0x38, 0xc7, 0xbb, 0x7e, 0x8c, 0xe5, 0xbd, 0x2a, 0x9e, 0x64,
    0x08, 0x80, 0x05, 0x08, 0x05, 0x10, 0x01, 0x42, 0x12, 0x63, 0x6f, 0x6e,
    0x73, 0x74, 0x5f, 0x66, 0x6f, 0x6c, 0x64, 0x5f, 0x6f, 0x70, 0x74, 0x5f,
    0x5f, 0x31, 0x37, 0x4a, 0x80, 0x64, 0xbd, 0x7b, 0x9f, 0xbd, 0xbc, 0xe7,
    0xad, 0xbc, 0x46, 0xf2, 0x55, 0x3d, 0x24, 0x17, 0xaa, 0xbd, 0x04, 0xaf,
    0x99, 0xbc, 0x1c, 0xf2, 0xfa, 0x3c, 0x38, 0xa9, 0x11, 0x3c, 0x81, 0x69,
    0x67, 0xbd, 0x82, 0x0e, 0x42, 0x3d, 0x00, 0x42, 0x98, 0xbc, 0x9c, 0x05,
    0xb5, 0x3c, 0xf9, 0x36, 0x82, 0x3d, 0x13, 0xf9, 0x0d, 0xbd, 0xd9, 0x82,
    0x87, 0x3d, 0xc0, 0xab, 0xef, 0x3b, 0x52, 0xfd, 0x31, 0x3d, 0x2a, 0xe8,
    0x43, 0x3d, 0x36, 0xf1, 0x64, 0x3d, 0x89, 0x7e, 0xa7, 0x3d, 0x30, 0x42,
    0x6d, 0xbc, 0x76, 0xd8, 0x2b, 0x3d, 0xb8, 0x2b, 0x06, 0xbd, 0x48, 0x7a,
    0x18, 0x3c, 0xb0, 0x0f, 0xab, 0xbd, 0xd8, 0xac, 0x76, 0x3c, 0x64, 0x65,
    0x5f, 0xbd, 0xe2, 0xae, 0x6e, 0x3d, 0x58, 0x8f, 0xaf, 0x3c, 0x57, 0x10,
    0xa7, 0x3d, 0xe2, 0x91, 0x0a, 0x3d, 0x7e, 0x36, 0x18, 0x3d, 0x78, 0x16,
    0x88, 0xbc, 0x25, 0xbe, 0xa0, 0x3d, 0xc8, 0xf1, 0x67, 0xbc, 0x75, 0x03,
    0x83, 0xbd, 0x06, 0x02, 0xbf, 0xbd, 0x76, 0x63, 0x73, 0x3d, 0xd4, 0x01,
    0x9f, 0xbd, 0x78, 0x64, 0xb1, 0xbc, 0x64, 0x54, 0xfd, 0x3c, 0x00, 0xa6,
    0xff, 0xb9, 0x31, 0xb4, 0x93, 0x3d, 0xb5, 0xd1, 0x96, 0x3d, 0xe0, 0x85,
    0x54, 0xbc, 0xdf, 0xe9, 0xbe, 0x3d, 0x19, 0x21, 0x44, 0xbd, 0x6d, 0xb2,
    0x41, 0xbd, 0x32, 0x50, 0x95, 0xbd, 0x5c, 0xe8, 0xc4, 0x3c, 0x21, 0x64,
    0xa0, 0x3d, 0x62, 0x16, 0x48, 0x3d, 0x60, 0x2d, 0xf8, 0xbb, 0x0a, 0x74,
    0x53, 0x3d, 0x14, 0x4a, 0x82, 0xbc, 0xd8, 0x4d, 0x40, 0xbc, 0x24, 0xe5,
    0xdc, 0x3c, 0xea, 0x06, 0x1a, 0x3d, 0xa9, 0x0a, 0x89, 0x3d, 0x76, 0xe7,
    0x7f, 0x3d, 0xa0, 0x97, 0xaf, 0xbd, 0xe7, 0x3c, 0x95, 0xbd, 0xec, 0x24,
    0x87, 0xbc, 0xb0, 0x42, 0x61, 0x3c, 0x14, 0x20, 0xa4, 0xbd, 0xda, 0x97,
    0x23, 0x3d, 0x70, 0xe9, 0x53, 0xbc, 0xac, 0x60, 0x81, 0x3c, 0x9f, 0xb7,
    0x96, 0xbd, 0xb3, 0xbe, 0x30, 0xbd, 0x8c, 0x42, 0xe7, 0x3c, 0xc6, 0x83,
    0x3c, 0xbd, 0x68, 0x64, 0x48, 0xbc, 0xa3, 0xe9, 0x43, 0xbd, 0xe6, 0x2d,
    0x35, 0x3d, 0xed, 0xb0, 0xa9, 0xbd, 0xe0, 0x80, 0xd7, 0x3c, 0x9e, 0x89,
    0x9e, 0xbd, 0xc4, 0xe2, 0xc6, 0x3c, 0x84, 0xe5, 0xc4, 0x3c, 0xe0, 0x7a,
    0xc5, 0xbb, 0x4c, 0x6c, 0xfe, 0xbc, 0xc8, 0x15, 0xb2, 0xbc, 0x66, 0x14,
    0x4f, 0xbd, 0xb9, 0x43, 0x98, 0xbd, 0xb1, 0xde, 0x0f, 0xbd, 0x4c, 0xe1,
    0x32, 0xbd, 0x50, 0xb8, 0xdd, 0xbc, 0xc0, 0x6b, 0xe7, 0xbb, 0x94, 0x99,
    0xeb, 0xbc, 0x00, 0x0d, 0xd3, 0x3a, 0x1f, 0xaa, 0x94, 0xbd, 0xb8, 0xfe,
    0x3f, 0xbd, 0x0c, 0x8e, 0x4e, 0xbd, 0xa6, 0xdd, 0x15, 0x3d, 0x88, 0xf4,
    0xc3, 0x3c, 0x6f, 0x12, 0x87, 0x3d, 0xcb, 0x1f, 0x92, 0xbd, 0x88, 0xda,
    0x58, 0xbc, 0x24, 0x91, 0x9d, 0xbd, 0x76, 0x02, 0x03, 0x3d, 0xd4, 0x1b,
    0xfd, 0xbc, 0x22, 0x88, 0x3b, 0x3d, 0x44, 0x07, 0xed, 0xbc, 0xd6, 0x74,
    0x31, 0x3d, 0x0e, 0xa5, 0x47, 0x3d, 0x34, 0xae, 0x43, 0xbd, 0x8b, 0x07,
    0x30, 0xbd, 0x17, 0x56, 0xa4, 0x3d, 0xaa, 0xdf, 0x09, 0xbd, 0x04, 0x84,
    0x2b, 0xbd, 0xfc, 0xa0, 0x02, 0xbd, 0x27, 0x6e, 0xc1, 0xbd, 0x3b, 0x6f,
    0x88, 0xbd, 0x0c, 0xcf, 0xe2, 0xbc, 0xa4, 0xb9, 0xde, 0x3c, 0xe9, 0x7d,
    0x9d, 0xbd, 0x63, 0x9d, 0x96, 0x3d, 0x5c, 0xec, 0xee, 0x3c, 0x79, 0xfa,
    0xbf, 0x3d, 0x00, 0x98, 0xac, 0xbc, 0x7d, 0x52, 0x2b, 0xbd, 0xbe, 0xac,
    0x52, 0x3d, 0x25, 0x26, 0xb3, 0x3d, 0x53, 0xbd, 0x96, 0x3d, 0xe0, 0xee,
    0xab, 0x3c, 0x45, 0xd8, 0x59, 0xbd, 0xf0, 0x8d, 0xb8, 0xbb, 0xab, 0xe0,
    0xbd, 0x3d, 0x67, 0x25, 0x87, 0xbd, 0x66, 0x97, 0x1b, 0xbd, 0xb2, 0xd1,
    0x13, 0x3d, 0xe8, 0xeb, 0x94, 0xbc, 0x08, 0xf4, 0x00, 0x3c, 0x80, 0xdd,
    0x48, 0x3a, 0x84, 0x9d, 0xe4, 0x3c, 0x50, 0x93, 0x81, 0xbd, 0xdf, 0x97,
    0x57, 0xbd, 0xb2, 0x80, 0x47, 0xbd, 0xf9, 0xc9, 0x24, 0xbd, 0x81, 0xf8,
    0xa0, 0xbd, 0x90, 0x50, 0x98, 0xbd, 0x26, 0x98, 0x4f, 0xbd, 0xe0, 0x50,
    0xf8, 0xbb, 0x6e, 0xde, 0x2f, 0xbd, 0x42, 0x5c, 0xba, 0xbd, 0xe0, 0x7f,
    0x98, 0x3b, 0x27, 0xd5, 0xa1, 0x3d, 0xe0, 0xbd, 0x15, 0x3c, 0xe2, 0x5a,
    0xbb, 0xbd, 0x95, 0x28, 0xac, 0x3d, 0x00, 0xac, 0x65, 0xb9, 0x70, 0xb8,
    0x88, 0x3b, 0xfd, 0x98, 0x81, 0x3d, 0xe8, 0x87, 0xdd, 0xbc, 0x05, 0xab,
    0xb1, 0xbd, 0xfd, 0xa7, 0x3d, 0xbd, 0xeb, 0x72, 0xbd, 0x3d, 0x9a, 0x9b,
    0x4a, 0x3d, 0x0c, 0xf8, 0x9c, 0x3c, 0x8d, 0x27, 0x17, 0xbd, 0xd4, 0x58,
    0xf4, 0x3c, 0x0a, 0x75, 0x3e, 0xbd, 0x54, 0xcb, 0x02, 0xbd, 0xc0, 0x68,
    0x17, 0x3c, 0xff, 0xf8, 0x56, 0xbd, 0x8e, 0xdb, 0x55, 0xbd, 0x2f, 0x9a,
    0x68, 0xbd, 0x86, 0x19, 0x63, 0x3d, 0x57, 0x4d, 0x9c, 0x3d, 0x45, 0xd8,
    0x84, 0x3d, 0x80, 0x8a, 0x53, 0x3a, 0x11, 0x7d, 0xaf, 0xbd, 0x20, 0x15,
    0xe3, 0x3c, 0x8e, 0xc7, 0x80, 0xbd, 0x42, 0xb9, 0x6a, 0x3d, 0x3f, 0x99,
    0x88, 0x3d, 0xe8, 0xa8, 0xdc, 0xbc, 0xf3, 0x57, 0xbc, 0xbd, 0x1b, 0xad,
    0x84, 0x3d, 0x30, 0xcd, 0x9b, 0xbc, 0xd6, 0x44, 0x2a, 0x3d, 0x00, 0x1b,
    0x2c, 0xba, 0x34, 0xd7, 0xfe, 0xbc, 0xf0, 0xe8, 0xb5, 0xbc, 0xb2, 0x42,
    0x15, 0x3d, 0x20, 0xb9, 0x31, 0xbd, 0x00, 0x02, 0x34, 0x3b, 0xe8, 0x6c,
    0x8b, 0xbc, 0xac, 0x40, 0x2a, 0xbd, 0xb1, 0x13, 0xab, 0x3d, 0x8f, 0x97,
    0x99, 0xbd, 0x9f, 0x59, 0x30, 0xbd, 0x67, 0x54, 0x93, 0x3d, 0xc0, 0xf0,
    0x35, 0xbc, 0xfb, 0x11, 0x99, 0x3d, 0x12, 0x2c, 0x63, 0x3d, 0x15, 0xce,
    0x1e, 0xbd, 0x99, 0x8f, 0x7b, 0xbd, 0x5e, 0x19, 0x52, 0x3d, 0x00, 0x61,
    0xb3, 0x3c, 0x41, 0x45, 0x81, 0x3d, 0x28, 0x2d, 0x76, 0xbd, 0xbf, 0x21,
    0x23, 0xbd, 0x40, 0x4e, 0x0e, 0x3c, 0x20, 0x60, 0x95, 0x3b, 0xe0, 0xb2,
    0x3c, 0xbb, 0x40, 0x6d, 0x32, 0xbb, 0x09, 0xf0, 0x71, 0xbd, 0x18, 0x5d,
    0xa0, 0x3c, 0x9c, 0xf4, 0xb7, 0xbc, 0xcc, 0xb3, 0xcf, 0xbc, 0x80, 0x18,
    0xbc, 0xbd, 0xec, 0x16, 0x56, 0xbd, 0x5a, 0xe6, 0x24, 0x3d, 0xea, 0x22,
    0xa2, 0xbd, 0x29, 0x06, 0xb4, 0xbd, 0xd2, 0xda, 0xbb, 0xbd, 0x06, 0xd3,
    0x1e, 0x3d, 0x68, 0xd2, 0x59, 0xbc, 0x66, 0x4a, 0x81, 0xbd, 0x37, 0x85,
    0x9d, 0x3d, 0x5a, 0xf3, 0x5a, 0x3d, 0x80, 0x24, 0x47, 0xbc, 0x7b, 0x14,
    0x58, 0xbd, 0x1c, 0xe4, 0xee, 0x3c, 0x94, 0x16, 0xf9, 0xbc, 0x9a, 0xa4,
    0x23, 0xbd, 0xa2, 0x9c, 0x2e, 0x3d, 0x56, 0xb7, 0x00, 0x3d, 0xba, 0x16,
    0x9a, 0xbd, 0xc0, 0x2e, 0xac, 0xbb, 0x9f, 0xed, 0xb0, 0x3d, 0x0e, 0x5e,
    0x21, 0x3d, 0x92, 0x05, 0xac, 0xbd, 0xc0, 0x6d, 0xfb, 0xbb, 0xeb, 0x63,
    0x40, 0xbd, 0x76, 0x77, 0x7d, 0x3d, 0xe3, 0x6f, 0xb1, 0xbd, 0x78, 0x4a,
    0x79, 0x3c, 0xaa, 0x97, 0x1b, 0x3d, 0x8a, 0x51, 0x80, 0xbd, 0x9a, 0x6d,
    0x5b, 0x3d, 0x51, 0x1e, 0xae, 0x3d, 0xb9, 0x96, 0x95, 0x3d, 0x9d, 0x47,
    0x81, 0xbd, 0x3d, 0x1c, 0xbd, 0x3d, 0xf3, 0xae, 0xb8, 0x3d, 0x86, 0x55,
    0x4e, 0x3d, 0x7f, 0x41, 0x6c, 0xbd, 0xf2, 0x2e, 0x9b, 0xbd, 0xb2, 0x01,
    0x57, 0x3d, 0xfd, 0x62, 0x86, 0x3d, 0x1d, 0x2e, 0xb6, 0xbd, 0x16, 0x41,
    0x16, 0x3d, 0x2a, 0xe0, 0x40, 0x3d, 0x1c, 0x87, 0xa5, 0xbd, 0x2a, 0xd6,
    0x0e, 0x3d, 0xd8, 0x2c, 0x0d, 0xbd, 0x3e, 0xe2, 0x4d, 0x3d, 0x3c, 0x67,
    0xb2, 0xbc, 0x11, 0xb7, 0xa6, 0xbd, 0x69, 0x76, 0x85, 0x3d, 0x9a, 0xcb,
    0xa4, 0xbd, 0xb8, 0x51, 0x35, 0x3c, 0xc7, 0xab, 0x86, 0x3d, 0x5f, 0x35,
    0x8a, 0xbd, 0xf3, 0x03, 0xc0, 0xbd, 0x76, 0x89, 0x2d, 0xbd, 0x1c, 0xf2,
    0xcb, 0xbc, 0xe1, 0x95, 0x62, 0xbd, 0x79, 0xb5, 0xc0, 0x3d, 0x11, 0x18,
    0xa1, 0x3d, 0x10, 0x36, 0x42, 0xbc, 0x7b, 0x98, 0x87, 0x3d, 0xec, 0x3d,
    0x86, 0x3c, 0x36, 0x84, 0x60, 0x3d, 0xcf, 0x8e, 0xb2, 0x3d, 0xaf, 0x16,
    0x94, 0x3d, 0xdb, 0x82, 0xa3, 0x3d, 0x6d, 0xe9, 0x8a, 0x3d, 0xf0, 0x84,
    0xe9, 0xbb, 0xe4, 0x8a, 0xee, 0x3c, 0x95, 0x7c, 0xb6, 0x3d, 0xf0, 0x37,
    0x88, 0x3c, 0x3c, 0xd7, 0xa6, 0x3c, 0xcc, 0xea, 0xa3, 0xbc, 0xb8, 0x86,
    0x89, 0x3c, 0xea, 0x30, 0x27, 0x3d, 0x9e, 0x4a, 0x68, 0x3d, 0x8f, 0x69,
    0x0e, 0xbd, 0xa0, 0x9a, 0x35, 0x3c, 0x82, 0x84, 0x67, 0x3d, 0x40, 0x52,
    0xb9, 0x3b, 0x07, 0x73, 0xbd, 0x3d, 0x5f, 0x7b, 0xaa, 0x3d, 0x38, 0x1f,
    0x41, 0xbd, 0x8d, 0x83, 0xa8, 0x3d, 0x20, 0xe7, 0xe8, 0xbb, 0x74, 0x6c,
    0xce, 0xbc, 0x45, 0x37, 0xb2, 0x3d, 0x85, 0x7c, 0x95, 0x3d, 0x24, 0x6a,
    0x9c, 0xbd, 0x50, 0x4c, 0x8c, 0x3b, 0xb6, 0x9a, 0x07, 0x3d, 0x81, 0x6d,
    0x47, 0xbd, 0x11, 0xe2, 0xbd, 0x3d, 0xf2, 0xc9, 0x3b, 0x3d, 0x2c, 0x40,
    0xf8, 0x3c, 0x00, 0xac, 0x06, 0x3a, 0x00, 0xd9, 0x11, 0xbd, 0x40, 0x47,
    0x33, 0x3b, 0xea, 0x9b, 0x1a, 0x3d, 0xec, 0xa5, 0xa0, 0xbd, 0xb0, 0x75,
    0xa5, 0xbb, 0x4a, 0x5c, 0x39, 0x3d, 0xc0, 0x20, 0x38, 0xbb, 0xfc, 0x09,
    0xac, 0xbd, 0x90, 0x45, 0xce, 0x3b, 0xff, 0x80, 0x8c, 0xbd, 0x02, 0x13,
    0x5b, 0xbd, 0xc0, 0x42, 0xb9, 0x3c, 0x09, 0x4c, 0x8c, 0x3d, 0x89, 0xb8,
    0xa0, 0x3d, 0x40, 0xc1, 0x66, 0x3b, 0x8c, 0xb5, 0x27, 0xbd, 0x52, 0x5d,
    0x36, 0x3d, 0x34, 0xdb, 0x8b, 0x3c, 0x71, 0x97, 0x86, 0xbd, 0xd3, 0x55,
    0xb7, 0x3d, 0x7a, 0xc6, 0x49, 0xbd, 0x3a, 0xc9, 0xa5, 0xbd, 0x1e, 0x5d,
    0x22, 0x3d, 0x1f, 0xed, 0xbb, 0x3d, 0xf5, 0xbb, 0xa0, 0x3d, 0x76, 0x5a,
    0x59, 0x3d, 0xac, 0x2a, 0xe9, 0xbc, 0x0a, 0x29, 0x7d, 0x3d, 0x8b, 0x4c,
    0xa4, 0x3d, 0x8c, 0x59, 0xd4, 0xbc, 0x4e, 0xca, 0x25, 0x3d, 0x38, 0x6a,
    0xa5, 0x3c, 0xe3, 0x6c, 0x9f, 0x3d, 0x20, 0x67, 0x91, 0x3c, 0xd7, 0xe6,
    0x80, 0x3d, 0x02, 0x18, 0xa8, 0xbd, 0xc2, 0xb4, 0x65, 0x3d, 0x9d, 0x47,
    0x2d, 0xbd, 0x40, 0x90, 0x66, 0x3b, 0xd5, 0x58, 0xa0, 0x3d, 0xc6, 0x9f,
    0x56, 0x3d, 0x1c, 0xb6, 0xfd, 0x3c, 0x80, 0x4e, 0xa7, 0x3b, 0x1d, 0x63,
    0xad, 0x3d, 0x41, 0xfe, 0x66, 0xbd, 0x8b, 0xc7, 0xb1, 0x3d, 0xb2, 0xb1,
    0x7a, 0x3d, 0xf2, 0x5e, 0x86, 0xbd, 0x40, 0x3a, 0xb2, 0x3a, 0x03, 0x73,
    0xa4, 0x3d, 0xb8, 0x2c, 0x95, 0xbc, 0x40, 0xdc, 0xe8, 0x3a, 0x38, 0xe0,
    0x8a, 0xbd, 0x1a, 0x42, 0x8c, 0xbd, 0x2f, 0x4d, 0xa9, 0x3d, 0x1a, 0x83,
    0x7b, 0x3d, 0x48, 0x40, 0x30, 0x3c, 0x1f, 0x16, 0x9c, 0xbd, 0xb0, 0x2c,
    0xab, 0xbc, 0x1d, 0xb5, 0x86, 0x3d, 0xd7, 0x8d, 0x9a, 0x3d, 0x82, 0xf3,
    0xab, 0xbd, 0xfa, 0xe6, 0x6b, 0x3d, 0x41, 0x43, 0xa8, 0xbd, 0xb8, 0x22,
    0x54, 0x3c, 0x54, 0x20, 0xa4, 0x3c, 0xe0, 0xa1, 0xc5, 0x3c, 0x8e, 0x71,
    0x3a, 0x3d, 0x80, 0xcc, 0x07, 0x3c, 0xd0, 0x2b, 0xba, 0xbc, 0x8c, 0x9c,
    0xae, 0xbd, 0xf4, 0xb2, 0xce, 0x3c, 0x50, 0x60, 0xee, 0xbc, 0x21, 0x4e,
    0x9d, 0x3d, 0xe0, 0x61, 0x89, 0xbc, 0xc8, 0xfa, 0xba, 0xbd, 0x38, 0x0c,
    0x30, 0xbd, 0xb7, 0xcb, 0xba, 0x3d, 0xab, 0x97, 0xb3, 0xbd, 0x6c, 0xc0,
    0x82, 0xbc, 0x78, 0x48, 0x94, 0x3c, 0xfc, 0x16, 0x94, 0x3c, 0x2f, 0x8a,
    0xa4, 0x3d, 0x5a, 0x0a, 0x37, 0xbd, 0x99, 0x4a, 0xb2, 0x3d, 0x8c, 0x36,
    0x93, 0xbc, 0x41, 0xdf, 0x1a, 0xbd, 0x21, 0x0d, 0x95, 0x3d, 0x46, 0xc8,
    0xc0, 0xbd, 0x7c, 0xca, 0xb0, 0x3c, 0x78, 0x50, 0x8c, 0xbd, 0x44, 0x46,
    0xbd, 0x3c, 0x3d, 0xc6, 0xbe, 0xbd, 0xe6, 0xe6, 0xa3, 0xbd, 0x21, 0x92,
    0x81, 0x3d, 0xf0, 0x42, 0x70, 0xbd, 0x85, 0xed, 0x96, 0x3d, 0xb2, 0x69,
    0x7e, 0x3d, 0x40, 0xf1, 0x84, 0xba, 0x8a, 0xa0, 0x93, 0xbd, 0x42, 0x2e,
    0x58, 0x3d, 0x85, 0x43, 0xa1, 0x3d, 0x40, 0xbf, 0x3d, 0xbc, 0x79, 0x41,
    0x9c, 0x3d, 0xde, 0xa4, 0x7c, 0x3d, 0x54, 0x3b, 0x97, 0x3c, 0xac, 0x7f,
    0x93, 0xbd, 0x63, 0xbc, 0x8d, 0x3d, 0xf2, 0xfb, 0x2b, 0x3d, 0x28, 0x15,
    0x83, 0xbd, 0x30, 0xed, 0xee, 0xbb, 0x69, 0xc1, 0xb6, 0x3d, 0xc3, 0xd6,
    0x8b, 0x3d, 0x10, 0x3a, 0xf4, 0xbc, 0x48, 0x96, 0x3c, 0x3c, 0x0d, 0xd5,
    0x74, 0xbd, 0x3c, 0x0f, 0xa1, 0x3c, 0x18, 0x68, 0x85, 0x3c, 0x20, 0xeb,
    0xc7, 0x3c, 0xb5, 0x49, 0x63, 0xbd, 0xc1, 0x4e, 0x81, 0x3d, 0xfd, 0x42,
    0x3a, 0xbd, 0xe0, 0xf7, 0xc8, 0xbc, 0xb1, 0x09, 0xaf, 0x3d, 0x53, 0xe3,
    0xa6, 0xbd, 0x72, 0x9b, 0xa7, 0xbd, 0x5e, 0x12, 0x0f, 0xbd, 0xb0, 0xe5,
    0x85, 0xbd, 0xde, 0x20, 0x41, 0x3d, 0x71, 0x14, 0xc1, 0x3d, 0xe0, 0x2e,
    0xcc, 0xbb, 0xa2, 0x26, 0x29, 0x3d, 0xce, 0x31, 0x37, 0x3d, 0x02, 0x07,
    0x64, 0x3d, 0x2c, 0xe7, 0xa7, 0xbc, 0xa0, 0x8f, 0x92, 0x3b, 0x99, 0xb2,
    0x84, 0x3d, 0x8b, 0x95, 0x3f, 0xbd, 0xb5, 0x32, 0x9b, 0xbd, 0x00, 0x62,
    0x69, 0xbb, 0xa5, 0xc2, 0x69, 0xbd, 0xeb, 0x64, 0x86, 0x3d, 0x25, 0x56,
    0xc1, 0x3d, 0xf2, 0x2f, 0x4c, 0x3d, 0x01, 0xdf, 0xc3, 0xbd, 0x72, 0xff,
    0x38, 0x3d, 0x8b, 0xba, 0xb7, 0x3d, 0x62, 0x0d, 0x42, 0x3d, 0x67, 0x93,
    0xb0, 0x3d, 0xcf, 0xcb, 0x44, 0xbd, 0x5c, 0x70, 0xf0, 0x3c, 0x60, 0x65,
    0xf5, 0xbb, 0x10, 0xca, 0xb9, 0xbb, 0xda, 0x2f, 0x39, 0x3d, 0x92, 0x88,
    0x2e, 0xbd, 0x00, 0x96, 0x72, 0xba, 0xbc, 0x7c, 0xf5, 0x3c, 0x80, 0xf1,
    0xbd, 0xba, 0x59, 0x66, 0xac, 0x3d, 0x9a, 0xab, 0x95, 0xbd, 0xa1, 0x16,
    0xb4, 0x3d, 0x88, 0xd6, 0x0b, 0x3c, 0x80, 0x39, 0x11, 0x3b, 0x61, 0x6b,
    0xa4, 0x3d, 0x54, 0x61, 0xee, 0x3c, 0x19, 0xc2, 0x8e, 0xbd, 0x31, 0x39,
    0x8e, 0x3d, 0xc4, 0xfd, 0xa2, 0xbc, 0xea, 0x44, 0xc5, 0xbd, 0x75, 0x19,
    0x97, 0xbd, 0xf0, 0xff, 0xf3, 0xbb, 0x47, 0x5d, 0xbc, 0x3d, 0xa0, 0x24,
    0x74, 0xbb, 0xf4, 0x45, 0x98, 0x3c, 0xb8, 0x34, 0x51, 0xbc, 0x0c, 0x65,
    0xf5, 0x3c, 0xec, 0xad, 0xac, 0xbd, 0x34, 0x2f, 0xe5, 0x3c, 0x9a, 0xe4,
    0x76, 0x3d, 0x63, 0x5c, 0x7a, 0xbd, 0xdc, 0x96, 0xd5, 0xbc, 0xd1, 0x7b,
    0x4f, 0xbd, 0x83, 0x15, 0xa1, 0xbd, 0x80, 0x22, 0xbc, 0x3c, 0x70, 0x44,
    0xb8, 0xbb, 0xbf, 0xaf, 0xa1, 0x3d, 0x18, 0xa3, 0x22, 0x3c, 0x21, 0x2b,
    0xc5, 0x3d, 0xec, 0x4c, 0xb1, 0xbd, 0xa7, 0xa5, 0x91, 0x3d, 0x12, 0x1a,
    0x97, 0xbd, 0x18, 0xff, 0x9a, 0xbd, 0xe0, 0x80, 0xd3, 0xbb, 0xc0, 0x7f,
    0x54, 0x3b, 0x21, 0xb5, 0xb7, 0x3d, 0x45, 0xb9, 0x78, 0xbd, 0x60, 0xbe,
    0xc0, 0xbd, 0xa6, 0x44, 0x53, 0x3d, 0xc3, 0xb7, 0xb1, 0x3d, 0x2f, 0x5a,
    0x80, 0x3d, 0x03, 0x20, 0xbb, 0x3d, 0xe1, 0x7e, 0x9a, 0xbd, 0x8d, 0x58,
    0x14, 0xbd, 0x60, 0x4d, 0x60, 0xbd, 0x20, 0x48, 0x98, 0xbd, 0x4f, 0x13,
    0x53, 0xbd, 0x0d, 0x80, 0xc4, 0x3d, 0xf0, 0x29, 0x16, 0xbd, 0x1a, 0xd6,
    0x7e, 0x3d, 0xf8, 0x58, 0xa1, 0xbc, 0x94, 0xea, 0x82, 0x3c, 0xd4, 0x40,
    0xe4, 0x3c, 0xb9, 0x0b, 0x28, 0xbd, 0x90, 0x43, 0x03, 0xbc, 0xc3, 0x94,
    0xc4, 0x3d, 0xaa, 0x5e, 0x72, 0xbd, 0x30, 0x6c, 0x51, 0xbd, 0x28, 0x44,
    0xd3, 0xbc, 0x72, 0xec, 0x3d, 0x3d, 0x58, 0x55, 0x6a, 0xbd, 0x5a, 0xee,
    0x16, 0x3d, 0xef, 0x0b, 0x94, 0x3d, 0xa6, 0x0a, 0x81, 0xbd, 0x4c, 0x13,
    0xec, 0x3c, 0x70, 0x56, 0x9d, 0x3b, 0x44, 0x7a, 0x82, 0xbc, 0x1b, 0x72,
    0x8c, 0x3d, 0xae, 0x55, 0x20, 0x3d, 0x33, 0x7d, 0x27, 0xbd, 0xfd, 0x42,
    0xc3, 0x3d, 0xc8, 0x4a, 0x96, 0xbc, 0x26, 0x60, 0x1e, 0x3d, 0xdd, 0x60,
    0x6e, 0xbd, 0x7e, 0x8f, 0x5f, 0xbd, 0xd6, 0x59, 0x1d, 0x3d, 0x5e, 0x56,
    0x8a, 0xbd, 0x90, 0xcf, 0x1b, 0xbc, 0xa8, 0xeb, 0xd8, 0xbc, 0xee, 0x99,
    0x3d, 0x3d, 0xc4, 0x8e, 0x8f, 0x3c, 0x5f, 0x95, 0x94, 0x3d, 0xe2, 0x1b,
    0x37, 0x3d, 0x07, 0x5b, 0x5d, 0xbd, 0x66, 0x49, 0xa2, 0xbd, 0x39, 0xcb,
    0x29, 0xbd, 0x35, 0xbe, 0x91, 0x3d, 0x26, 0x5f, 0x7e, 0x3d, 0x83, 0x9d,
    0x8b, 0x3d, 0x42, 0x06, 0xab, 0xbd, 0x61, 0x19, 0x82, 0x3d, 0x88, 0x3a,
    0x2e, 0xbc, 0xd9, 0xda, 0x3a, 0xbd, 0xe2, 0x36, 0x24, 0x3d, 0x86, 0xde,
    0x69, 0x3d, 0x7a, 0x73, 0x2f, 0x3d, 0x80, 0xda, 0x8a, 0xbc, 0x85, 0xb1,
    0x8f, 0x3d, 0x61, 0xae, 0x94, 0x3d, 0x2e, 0x2a, 0x57, 0x3d, 0xe6, 0x52,
    0x09, 0x3d, 0x80, 0x4b, 0x36, 0x3c, 0x5d, 0x68, 0xc1, 0xbd, 0x40, 0x40,
    0x6d, 0x3c, 0xd8, 0x09, 0x26, 0xbc, 0x48, 0x5f, 0x09, 0xbc, 0x5e, 0x6b,
    0x62, 0x3d, 0x0a, 0x85, 0x79, 0xbd, 0xcb, 0x97, 0x85, 0x3d, 0x40, 0x79,
    0x47, 0xbb, 0x20, 0x1e, 0x1f, 0x3b, 0xe0, 0xca, 0x4b, 0x3c, 0x05, 0x57,
    0x3d, 0xbd, 0xd3, 0x24, 0x86, 0xbd, 0x43, 0x65, 0xc3, 0xbd, 0xaa, 0x39,
    0x54, 0x3d, 0x0c, 0xbb, 0xa5, 0xbd, 0x6e, 0x62, 0x6c, 0x3d, 0x58, 0x90,
    0x06, 0xbd, 0x74, 0x44, 0xa9, 0x3c, 0x03, 0xe6, 0x49, 0xbd, 0x02, 0x10,
    0x0f, 0x3d, 0x80, 0x5f, 0x91, 0x3c, 0xac, 0xf9, 0xa1, 0xbd, 0x66, 0xdb,
    0x0d, 0x3d, 0x9e, 0x2c, 0xa6, 0xbd, 0x22, 0x45, 0x91, 0xbd, 0xf4, 0xab,
    0x15, 0xbd, 0x0e, 0x9b, 0x12, 0x3d, 0x60, 0xdb, 0xd2, 0x3b, 0xce, 0x9b,
    0x0d, 0x3d, 0xde, 0x16, 0x7a, 0x3d, 0x6b, 0xc1, 0x91, 0xbd, 0xfa, 0x5f,
    0x31, 0x3d, 0xae, 0xef, 0x19, 0x3d, 0xda, 0x02, 0xa6, 0xbd, 0xe0, 0x68,
    0x2d, 0xbc, 0x92, 0xa8, 0x1b, 0x3d, 0xc4, 0x11, 0xfb, 0x3c, 0x9a, 0x9a,
    0x70, 0x3d, 0x7a, 0xfc, 0x92, 0xbd, 0x8a, 0x47, 0x66, 0x3d, 0xbb, 0x44,
    0x9b, 0x3d, 0x40, 0x39, 0xc6, 0x3b, 0x9b, 0xd4, 0x83, 0xbd, 0x26, 0x9d,
    0x01, 0xbd, 0x44, 0x7e, 0xf9, 0xbc, 0x3b, 0x24, 0x8a, 0x3d, 0xeb, 0xc8,
    0x86, 0x3d, 0x6c, 0x81, 0xc5, 0xbd, 0xff, 0xda, 0x5a, 0xbd, 0xd0, 0xb4,
    0x55, 0x3c, 0x18, 0x1e, 0xab, 0xbd, 0x68, 0x21, 0x78, 0xbc, 0x4a, 0x37,
    0x5c, 0x3d, 0x81, 0x11, 0x9c, 0x3d, 0xf5, 0xc2, 0x6a, 0xbd, 0xd8, 0xfe,
    0x4f, 0x3c, 0xe2, 0x41, 0x58, 0x3d, 0x7d, 0x6e, 0x86, 0x3d, 0xeb, 0x7c,
    0x64, 0xbd, 0x08, 0x30, 0x7d, 0xbc, 0xd6, 0x6a, 0x73, 0x3d, 0xc5, 0xb8,
    0x8d, 0x3d, 0xab, 0x42, 0xbf, 0xbd, 0x20, 0x55, 0x78, 0x3b, 0xb2, 0x6b,
    0x49, 0x3d, 0xb8, 0x17, 0x18, 0x3c, 0x73, 0xce, 0xc4, 0xbd, 0x0c, 0xcd,
    0x0c, 0xbd, 0x2a, 0x9c, 0x56, 0x3d, 0x00, 0xac, 0xd7, 0x3b, 0x4e, 0xa8,
    0x4e, 0xbd, 0xd2, 0x09, 0x45, 0x3d, 0xc6, 0xcf, 0x4c, 0x3d, 0x46, 0xd3,
    0x62, 0x3d, 0xf9, 0xe5, 0xbc, 0x3d, 0xc8, 0x1b, 0x7e, 0xbd, 0xb4, 0xb8,
    0xa4, 0xbc, 0x8c, 0x7e, 0x28, 0xbd, 0x6b, 0xff, 0x50, 0xbd, 0x44, 0xa8,
    0xec, 0x3c, 0x77, 0x84, 0xa8, 0xbd, 0xec, 0xdf, 0x10, 0xbd, 0x10, 0x34,
    0x64, 0x3c, 0xc0, 0xd8, 0x52, 0x3c, 0xfa, 0xfc, 0xa1, 0xbd, 0xda, 0x31,
    0x26, 0x3d, 0x98, 0xa1, 0x92, 0xbc, 0x5d, 0xf4, 0x23, 0xbd, 0x4a, 0x8c,
    0x15, 0x3d, 0x80, 0xad, 0xc9, 0xbc, 0xa3, 0x91, 0x8a, 0x3d, 0x28, 0xa2,
    0x87, 0x3c, 0x30, 0xd4, 0xbd, 0xbc, 0x95, 0x71, 0x82, 0x3d, 0xfa, 0x5f,
    0x25, 0xbd, 0x65, 0xfd, 0xb3, 0x3d, 0x80, 0x9e, 0xed, 0x3a, 0x65, 0x6f,
    0x8d, 0xbd, 0x48, 0xbe, 0x5f, 0xbc, 0xb6, 0xd1, 0xa6, 0xbd, 0xc5, 0xd3,
    0x98, 0x3d, 0xb8, 0xb1, 0xbe, 0xbd, 0x80, 0x9d, 0xc9, 0xbb, 0x92, 0x69,
    0x7e, 0xbd, 0x80, 0xcd, 0xc3, 0xba, 0x19, 0xab, 0x9d, 0x3d, 0xf7, 0x83,
    0x9e, 0x3d, 0xa8, 0x1b, 0x64, 0xbc, 0xbb, 0x92, 0x37, 0xbd, 0xb0, 0xef,
    0x01, 0xbd, 0xa2, 0x42, 0x20, 0x3d, 0x94, 0xa9, 0xad, 0x3c, 0x06, 0x5e,
    0x7a, 0x3d, 0x2e, 0x5b, 0x58, 0x3d, 0x0c, 0x56, 0xed, 0x3c, 0x04, 0x4a,
    0xae, 0xbc, 0xdb, 0xbf, 0x52, 0xbd, 0x60, 0x78, 0x08, 0x3c, 0xea, 0xe6,
    0xb1, 0xbd, 0x45, 0xf2, 0x9a, 0x3d, 0xd5, 0x7a, 0xa9, 0xbd, 0x86, 0x86,
    0x49, 0x3d, 0x52, 0x3d, 0x18, 0xbd, 0xb6, 0x15, 0x79, 0x3d, 0x6c, 0x4e,
    0xdb, 0xbc, 0x80, 0x38, 0xb2, 0xbd, 0x9e, 0xe9, 0x60, 0x3d, 0x91, 0xcd,
    0xa3, 0x3d, 0xb8, 0x29, 0xb7, 0xbc, 0xfe, 0x01, 0x0f, 0xbd, 0xc0, 0xea,
    0xe3, 0x3a, 0x99, 0xc4, 0xb5, 0xbd, 0xe8, 0x88, 0x02, 0x3c, 0xc3, 0xb1,
    0x9d, 0x3d, 0x38, 0x93, 0x89, 0xbd, 0xd0, 0x02, 0xc2, 0x3c, 0x16, 0x12,
    0x71, 0x3d, 0xc5, 0xaa, 0x6b, 0xbd, 0x04, 0xa1, 0xd0, 0x3c, 0xe2, 0x3a,
    0x6c, 0x3d, 0x43, 0x90, 0x1b, 0xbd, 0x01, 0xf9, 0x83, 0xbd, 0x29, 0x4b,
    0x90, 0xbd, 0x9c, 0xc4, 0xa8, 0x3c, 0xcc, 0xa0, 0xfb, 0x3c, 0x85, 0x21,
    0xaa, 0x3d, 0x6e, 0x09, 0x9b, 0xbd, 0xb7, 0xac, 0x61, 0xbd, 0xc4, 0xfb,
    0xa7, 0x3c, 0x2c, 0xfd, 0xfc, 0x3c, 0x35, 0x97, 0x90, 0x3d, 0x02, 0x99,
    0x76, 0xbd, 0x80, 0xb6, 0x4f, 0x3c, 0x80, 0x72, 0xc8, 0xba, 0x08, 0x05,
    0x39, 0x3c, 0x97, 0xf3, 0xb1, 0x3d, 0x56, 0xb7, 0x64, 0x3d, 0xa0, 0x68,
    0x8f, 0xbd, 0x52, 0xcd, 0x06, 0x3d, 0x10, 0x8a, 0x1d, 0xbd, 0x40, 0xae,
    0xaf, 0x3c, 0xc0, 0x10, 0xce, 0xba, 0x24, 0x50, 0xb9, 0xbd, 0xa2, 0x5c,
    0x76, 0xbd, 0x4e, 0x2a, 0x26, 0x3d, 0x32, 0x7e, 0x0d, 0x3d, 0xa6, 0x27,
    0x46, 0x3d, 0x00, 0x80, 0x47, 0xb9, 0xe4, 0x69, 0xc5, 0x3c, 0x94, 0x56,
    0xff, 0x3c, 0x4e, 0xb4, 0x40, 0x3d, 0x10, 0x82, 0x1d, 0x3c, 0xfc, 0x3c,
    0xbc, 0xbc, 0x7e, 0xe2, 0x08, 0x3d, 0xa6, 0xe6, 0x40, 0x3d, 0xc2, 0xf5,
    0x18, 0x3d, 0xd0, 0x0f, 0x83, 0xbd, 0x10, 0xa3, 0x27, 0xbc, 0x4e, 0x8f,
    0xb9, 0xbd, 0x9a, 0x38, 0x69, 0x3d, 0x82, 0xee, 0xba, 0xbd, 0xed, 0x7f,
    0xab, 0x3d, 0xd6, 0x34, 0x11, 0x3d, 0xaf, 0x19, 0x86, 0xbd, 0xb4, 0x43,
    0xae, 0x3c, 0xe8, 0xa8, 0x19, 0xbd, 0xe8, 0x0b, 0x15, 0xbc, 0xad, 0x65,
    0x64, 0xbd, 0xab, 0xa4, 0x99, 0x3d, 0xbf, 0x1f, 0xb2, 0xbd, 0xd9, 0xd5,
    0x9c, 0xbd, 0x88, 0xf3, 0xbd, 0xbd, 0xa0, 0x76, 0x0f, 0xbd, 0xe4, 0x25,
    0xa5, 0xbd, 0x97, 0x7f, 0xc5, 0xbd, 0x31, 0xb5, 0x9b, 0xbd, 0x12, 0xe3,
    0x7b, 0x3d, 0x5e, 0x05, 0x41, 0x3d, 0xc0, 0xeb, 0xb6, 0x3a, 0xf7, 0xde,
    0x9d, 0x3d, 0x2a, 0xb4, 0x0c, 0xbd, 0x2c, 0x97, 0x90, 0xbd, 0x7e, 0x1e,
    0x11, 0x3d, 0xa2, 0xbb, 0x46, 0x3d, 0x9e, 0xb4, 0x1f, 0x3d, 0x40, 0x9f,
    0xa3, 0xbb, 0xb2, 0xe3, 0x72, 0x3d, 0x0a, 0xb5, 0x09, 0x3d, 0x7c, 0x14,
    0xbb, 0xbd, 0x54, 0x31, 0xe9, 0xbc, 0x40, 0x86, 0x01, 0x3c, 0x81, 0x77,
    0x5d, 0xbd, 0x2f, 0xeb, 0xc3, 0x3d, 0x79, 0x4e, 0xc0, 0x3d, 0x30, 0x62,
    0xbc, 0xbb, 0xc0, 0xd4, 0x8d, 0xba, 0x84, 0xdb, 0xa1, 0xbc, 0x9a, 0xc2,
    0x75, 0xbd, 0xb7, 0x42, 0xbe, 0x3d, 0x06, 0x5a, 0x36, 0x3d, 0x8a, 0x97,
    0x65, 0xbd, 0x3f, 0x72, 0x4d, 0xbd, 0xb6, 0x0f, 0x79, 0x3d, 0xa2, 0xb4,
    0x14, 0xbd, 0x2c, 0xd8, 0xe7, 0x3c, 0x2e, 0xfc, 0x36, 0x3d, 0x2c, 0x01,
    0xa2, 0xbc, 0x98, 0xde, 0x96, 0xbc, 0xcc, 0x85, 0x09, 0xbd, 0x6c, 0x57,
    0xaa, 0xbd, 0xca, 0x38, 0x06, 0x3d, 0x95, 0x42, 0x9e, 0x3d, 0xc3, 0x6d,
    0xb2, 0x3d, 0xb8, 0xa9, 0xb8, 0xbd, 0xd1, 0x9c, 0x9a, 0x3d, 0x9b, 0x02,
    0x92, 0x3d, 0x48, 0x67, 0x05, 0xbc, 0x74, 0xc2, 0x68, 0xbd, 0x65, 0x93,
    0x8c, 0xbd, 0x55, 0x3e, 0x99, 0xbd, 0x00, 0xa8, 0x80, 0xb8, 0x7a, 0x9b,
    0x1b, 0xbd, 0xb8, 0xcb, 0xe8, 0xbc, 0x50, 0x51, 0xaa, 0x3c, 0x48, 0xcf,
    0x53, 0xbc, 0x0c, 0x74, 0xaf, 0xbd, 0xa0, 0x3d, 0xab, 0x3b, 0x51, 0x54,
    0xa5, 0x3d, 0x15, 0x83, 0x9e, 0x3d, 0x43, 0xa6, 0x83, 0xbd, 0xd3, 0xb1,
    0xbd, 0x3d, 0xa6, 0x13, 0xb8, 0xbd, 0x4e, 0x80, 0xb2, 0xbd, 0xa0, 0x3b,
    0x71, 0x3b, 0xe8, 0x33, 0xb5, 0x3c, 0xa4, 0x31, 0x63, 0xbd, 0x24, 0x48,
    0x83, 0xbd, 0xd8, 0xe6, 0x96, 0xbd, 0x91, 0xd2, 0x85, 0x3d, 0x98, 0xdb,
    0xda, 0xbc, 0x37, 0x28, 0x2f, 0xbd, 0x00, 0x4f, 0xc5, 0x39, 0xba, 0xcd,
    0x1e, 0x3d, 0xd2, 0xc1, 0x2c, 0x3d, 0x28, 0x46, 0x69, 0x3c, 0x6d, 0xba,
    0x8f, 0x3d, 0xcd, 0x2f, 0xab, 0x3d, 0x70, 0xde, 0x34, 0xbc, 0x6e, 0x88,
    0x5e, 0xbd, 0x4f, 0x51, 0x9b, 0x3d, 0x03, 0x67, 0x3b, 0xbd, 0x2d, 0x3b,
    0x84, 0x3d, 0xde, 0xce, 0x45, 0x3d, 0x02, 0xf7, 0x1e, 0x3d, 0x75, 0xd0,
    0x8d, 0x3d, 0x70, 0x97, 0xea, 0xbc, 0xb8, 0xf2, 0xe8, 0xbc, 0xbd, 0xa6,
    0xc4, 0xbd, 0x77, 0x63, 0xba, 0x3d, 0x94, 0x18, 0x14, 0xbd, 0xde, 0x22,
    0x1a, 0x3d, 0x4c, 0x17, 0xe1, 0x3c, 0x47, 0xdd, 0xc3, 0x3d, 0xf1, 0xa8,
    0x79, 0xbd, 0x51, 0x9e, 0xb7, 0x3d, 0x09, 0xf6, 0x85, 0x3d, 0x80, 0x51,
    0x57, 0xbb, 0xfe, 0x39, 0xba, 0xbd, 0xb8, 0x51, 0xba, 0x3c, 0x1a, 0x8b,
    0x5e, 0x3d, 0x78, 0xe1, 0xcd, 0x3c, 0xd4, 0x74, 0x04, 0xbd, 0x2e, 0x56,
    0x5d, 0x3d, 0x4c, 0x4d, 0x8a, 0x3c, 0x98, 0x66, 0x89, 0xbc, 0x40, 0x39,
    0x3e, 0x3b, 0x5f, 0xbb, 0xb7, 0x3d, 0x33, 0xbd, 0x78, 0xbd, 0x66, 0xdf,
    0x2d, 0x3d, 0x6a, 0xc2, 0x3b, 0x3d, 0x62, 0xc4, 0x54, 0x3d, 0x87, 0xf7,
    0x9a, 0x3d, 0x48, 0xb7, 0x66, 0x3c, 0x2a, 0xc2, 0x57, 0xbd, 0x45, 0x37,
    0xa8, 0xbd, 0x84, 0x91, 0xb1, 0xbc, 0x8f, 0x79, 0x92, 0x3d, 0x2f, 0x8a,
    0x73, 0xbd, 0xd8, 0x58, 0xbc, 0xbd, 0xe6, 0x64, 0x26, 0x3d, 0xa8, 0x0a,
    0x46, 0x3c, 0xb7, 0x10, 0x28, 0xbd, 0xd0, 0x12, 0x08, 0xbd, 0x92, 0x6d,
    0x61, 0x3d, 0xdc, 0xbb, 0x3d, 0xbd, 0x12, 0x0e, 0x25, 0x3d, 0xb6, 0x6f,
    0x1f, 0x3d, 0x87, 0x67, 0x82, 0x3d, 0xd8, 0x4a, 0xf4, 0xbc, 0xd8, 0x70,
    0xc1, 0x3c, 0xc0, 0x91, 0xdd, 0xba, 0x6c, 0x18, 0xfc, 0x3c, 0x54, 0x60,
    0x9a, 0xbd, 0xd2, 0x8a, 0x06, 0xbd, 0x00, 0x26, 0x5b, 0xbc, 0x7e, 0xa7,
    0x27, 0x3d, 0xcb, 0x10, 0xb6, 0xbd, 0x74, 0xc8, 0xb8, 0x3c, 0xc6, 0x67,
    0x53, 0xbd, 0xa4, 0x95, 0xf7, 0x3c, 0x2a, 0xcc, 0x79, 0x3d, 0x90, 0xd1,
    0xa0, 0xbd, 0xcd, 0x20, 0xb8, 0x3d, 0x12, 0xf9, 0x68, 0x3d, 0xf0, 0x25,
    0xc3, 0xbc, 0x68, 0x3d, 0x0d, 0x3c, 0xa3, 0x9d, 0x8f, 0x3d, 0x4a, 0x54,
    0xa9, 0xbd, 0x97, 0xb0, 0x85, 0x3d, 0x32, 0x26, 0x87, 0xbd, 0xe5, 0xd4,
    0x6b, 0xbd, 0x19, 0x2a, 0x1d, 0xbd, 0xe6, 0x61, 0x3c, 0x3d, 0x00, 0xd9,
    0x10, 0x3b, 0x20, 0x05, 0xb5, 0xbc, 0x0e, 0x4c, 0x01, 0x3d, 0x1f, 0x24,
    0x1b, 0xbd, 0x1a, 0xeb, 0x08, 0x3d, 0x8d, 0x87, 0x97, 0xbd, 0x3d, 0x87,
    0x86, 0x3d, 0x0c, 0xcf, 0x8b, 0xbd, 0x1f, 0x68, 0x8e, 0xbd, 0x70, 0x9c,
    0x49, 0xbc, 0x50, 0x6e, 0x0d, 0x3c, 0x3b, 0xd5, 0x82, 0x3d, 0x50, 0xa2,
    0x96, 0x3c, 0xc0, 0x68, 0xc4, 0xbc, 0x73, 0x0f, 0xb3, 0x3d, 0xe8, 0xaa,
    0xae, 0xbd, 0x8c, 0xc6, 0x94, 0xbd, 0x0b, 0x45, 0xa7, 0x3d, 0x4a, 0x7e,
    0x77, 0xbd, 0x4e, 0xed, 0x0d, 0x3d, 0x8a, 0x20, 0x68, 0x3d, 0x32, 0xa0,
    0x85, 0xbd, 0xc5, 0x26, 0x8d, 0x3d, 0x25, 0x53, 0xb8, 0x3d, 0x3a, 0x97,
    0x19, 0x3d, 0x19, 0x25, 0xab, 0x3d, 0xba, 0x49, 0x12, 0x3d, 0xe5, 0xe0,
    0xa1, 0x3d, 0x47, 0xb6, 0x98, 0x3d, 0xc8, 0xda, 0x62, 0xbc, 0xee, 0x7b,
    0x6a, 0x3d, 0xf0, 0x38, 0xa9, 0xbc, 0xdc, 0x63, 0xe5, 0x3c, 0x06, 0xa8,
    0x37, 0xbd, 0x40, 0x76, 0x53, 0xbb, 0xcf, 0xe3, 0x1e, 0xbd, 0x15, 0x7e,
    0x9d, 0x3d, 0x1c, 0xe8, 0xc6, 0x3c, 0x3e, 0x7d, 0x1c, 0x3d, 0xd7, 0xc6,
    0x99, 0x3d, 0x6e, 0x4f, 0x15, 0x3d, 0x5a, 0xec, 0x2d, 0x3d, 0xd2, 0xd4,
    0x14, 0x3d, 0xfe, 0x2d, 0x7e, 0x3d, 0x00, 0x20, 0x12, 0xb8, 0xea, 0x54,
    0x01, 0x3d, 0xe8, 0x8c, 0x7e, 0x3c, 0x2c, 0xa7, 0xb8, 0x3c, 0xba, 0x2b,
    0x59, 0x3d, 0xf1, 0x47, 0x9b, 0x3d, 0xb8, 0x4e, 0x9e, 0xbc, 0xbf, 0x88,
    0x86, 0x3d, 0x59, 0x8c, 0xb3, 0x3d, 0xfb, 0x15, 0x33, 0xbd, 0xbd, 0x4a,
    0x90, 0x3d, 0x1e, 0x1e, 0x61, 0x3d, 0x4a, 0xfb, 0x3e, 0x3d, 0xcc, 0x96,
    0xc3, 0xbc, 0xd5, 0x81, 0x81, 0xbd, 0x37, 0xbc, 0x85, 0x3d, 0x90, 0x6a,
    0x54, 0xbc, 0x90, 0xa1, 0x2e, 0xbc, 0xa8, 0x59, 0x7e, 0xbd, 0x38, 0x56,
    0x43, 0xbd, 0x13, 0x59, 0xba, 0x3d, 0x52, 0xdb, 0x00, 0x3d, 0x9b, 0xe4,
    0xab, 0x3d, 0xc8, 0x95, 0x41, 0x3c, 0x93, 0x71, 0x9d, 0x3d, 0x00, 0x00,
    0x11, 0x36, 0x66, 0xb1, 0x4f, 0x3d, 0xfb, 0x61, 0x9b, 0xbd, 0x7e, 0x4b,
    0xad, 0xbd, 0x60, 0xf6, 0x65, 0x3c, 0xe0, 0x18, 0xfa, 0xbc, 0x37, 0x8c,
    0x88, 0x3d, 0x78, 0x60, 0x85, 0xbd, 0x5d, 0xaa, 0x6a, 0xbd, 0x00, 0x0c,
    0x54, 0xbd, 0xef, 0xb7, 0xb7, 0x3d, 0xcf, 0x21, 0x2a, 0xbd, 0xe8, 0xbf,
    0x50, 0xbd, 0xa4, 0xe6, 0xed, 0x3c, 0xcd, 0x2f, 0x13, 0xbd, 0xc6, 0xb8,
    0x2c, 0x3d, 0xd1, 0xc6, 0x81, 0xbd, 0x70, 0xb6, 0xb7, 0x3c, 0xd2, 0xd5,
    0xc3, 0xbd, 0x7a, 0xcb, 0x0d, 0xbd, 0x33, 0xea, 0x9c, 0xbd, 0x40, 0xfd,
    0x78, 0xbb, 0x4e, 0x89, 0x18, 0x3d, 0xe0, 0xc4, 0x6e, 0x3b, 0x32, 0x7c,
    0x4f, 0x3d, 0x92, 0xb0, 0xbe, 0xbd, 0x99, 0xd4, 0x9a, 0xbd, 0xee, 0xbe,
    0x6a, 0x3d, 0xbe, 0xcc, 0x6c, 0xbd, 0x61, 0x43, 0x9a, 0x3d, 0x73, 0x5e,
    0xa1, 0x3d, 0x00, 0xa8, 0x34, 0x38, 0xe4, 0x5d, 0xdd, 0xbc, 0x18, 0xda,
    0x9a, 0xbd, 0xf0, 0xd8, 0xa9, 0x3c, 0x56, 0x68, 0x27, 0x3d, 0xe3, 0x9c,
    0x88, 0x3d, 0xc0, 0x18, 0x28, 0xbc, 0x5b, 0xdb, 0xb6, 0x3d, 0x38, 0x38,
    0x08, 0x3c, 0xc4, 0x4d, 0xc3, 0xbd, 0x8e, 0x79, 0x47, 0x3d, 0x10, 0x94,
    0xb8, 0xbb, 0x2b, 0x76, 0xa9, 0x3d, 0x26, 0xa3, 0x6d, 0x3d, 0xa4, 0x32,
    0xb7, 0x3c, 0xb8, 0xe3, 0x23, 0xbc, 0xc5, 0xae, 0x90, 0x3d, 0x3b, 0x77,
    0xaf, 0x3d, 0x41, 0xc1, 0x8c, 0x3d, 0x6a, 0x2f, 0x08, 0x3d, 0x84, 0x5d,
    0x80, 0xbc, 0xaf, 0xa8, 0x1e, 0xbd, 0xbf, 0x9d, 0x96, 0x3d, 0xe1, 0x30,
    0xb3, 0xbd, 0x1f, 0xd0, 0xb6, 0x3d, 0x0d, 0xfa, 0x85, 0xbd, 0x86, 0x4f,
    0x1e, 0x3d, 0x60, 0x66, 0x75, 0x3b, 0x07, 0xb0, 0xb1, 0x3d, 0x78, 0x05,
    0x7b, 0x3c, 0x42, 0x09, 0x6e, 0x3d, 0x60, 0xcc, 0x88, 0xbc, 0x14, 0x1c,
    0x8a, 0xbd, 0xe0, 0x82, 0x9b, 0xbc, 0x96, 0xf4, 0x77, 0x3d, 0xa3, 0xfe,
    0x24, 0xbd, 0xe0, 0xfa, 0x0c, 0xbc, 0x75, 0xbb, 0x96, 0x3d, 0xb4, 0xe3,
    0x9c, 0xbd, 0x5c, 0x4f, 0x6c, 0xbd, 0x90, 0x68, 0xf2, 0xbb, 0xb4, 0xd8,
    0xf5, 0x3c, 0xc5, 0x08, 0xb4, 0x3d, 0x60, 0x76, 0x1a, 0x3c, 0xee, 0x48,
    0x32, 0x3d, 0xf6, 0x57, 0x3a, 0x3d, 0x9c, 0x00, 0xb9, 0xbd, 0x90, 0x91,
    0x00, 0xbc, 0xc0, 0xdd, 0x6d, 0xbb, 0x6c, 0x96, 0xd7, 0x3c, 0x60, 0xf6,
    0x0c, 0x3b, 0xd7, 0x60, 0xba, 0xbd, 0x10, 0x0c, 0x13, 0x3c, 0xed, 0x00,
    0xad, 0x3d, 0xf6, 0x07, 0x07, 0xbd, 0x82, 0xf7, 0x8b, 0xbd, 0x30, 0xf7,
    0x78, 0xbd, 0xee, 0xc0, 0x59, 0x3d, 0x14, 0x90, 0x49, 0xbd, 0xd9, 0x85,
    0xc3, 0x3d, 0xb3, 0x29, 0x8b, 0xbd, 0x90, 0x17, 0x5b, 0xbd, 0x00, 0x74,
    0xff, 0xbb, 0xc2, 0x0c, 0x2e, 0x3d, 0xce, 0xd4, 0x10, 0x3d, 0x00, 0x4c,
    0xdb, 0x3a, 0xc0, 0x7f, 0xbf, 0xbc, 0x09, 0x4e, 0xa6, 0x3d, 0xa6, 0x73,
    0x06, 0xbd, 0x34, 0xc8, 0xb4, 0xbd, 0xca, 0x95, 0x07, 0x3d, 0xf8, 0xcc,
    0xc0, 0xbc, 0x9d, 0x20, 0xa2, 0x3d, 0xe8, 0x0f, 0xe9, 0x3c, 0xb6, 0x7d,
    0x1f, 0x3d, 0x9b, 0x85, 0xb3, 0x3d, 0x4c, 0xbe, 0xdd, 0xbc, 0x44, 0xc8,
    0x85, 0x3c, 0xe2, 0xe1, 0x7f, 0x3d, 0xb9, 0xc0, 0xbf, 0x3d, 0x5a, 0x27,
    0x81, 0xbd, 0x48, 0x6f, 0xdc, 0x3c, 0x3d, 0x34, 0x25, 0xbd, 0xc0, 0x9d,
    0x0a, 0xbb, 0x0a, 0xd4, 0x1c, 0x3d, 0x2a, 0xd4, 0x7d, 0x3d, 0xf4, 0xa3,
    0xd2, 0x3c, 0x63, 0x4f, 0x9c, 0x3d, 0xd4, 0x96, 0x16, 0xbd, 0x23, 0xf5,
    0x69, 0xbd, 0x10, 0x3a, 0xf6, 0xbc, 0xb6, 0x29, 0x54, 0x3d, 0x80, 0x66,
    0x3a, 0x3c, 0x80, 0xb0, 0x25, 0xbb, 0xd0, 0xda, 0xe2, 0x3c, 0x11, 0x40,
    0x60, 0xbd, 0x8d, 0x38, 0xbe, 0x3d, 0xd4, 0x52, 0xe2, 0x3c, 0x00, 0x7c,
    0xd3, 0xbc, 0xc4, 0xae, 0xd2, 0x3c, 0x9e, 0xc3, 0x67, 0x3d, 0xe8, 0x9e,
    0x8d, 0xbd, 0x79, 0xf4, 0x80, 0x3d, 0x55, 0xd4, 0xbd, 0xbd, 0x92, 0xfa,
    0x2e, 0xbd, 0x82, 0xc7, 0x1c, 0x3d, 0x28, 0xb6, 0x93, 0xbc, 0x31, 0x9a,
    0x97, 0x3d, 0x50, 0x64, 0x1e, 0x3c, 0x6a, 0xac, 0x63, 0x3d, 0xf4, 0x80,
    0xc5, 0xbd, 0x5a, 0xa8, 0x60, 0xbd, 0x5a, 0x80, 0x3e, 0x3d, 0xc8, 0x04,
    0x9b, 0xbc, 0xb0, 0xb7, 0xbf, 0x3c, 0xc2, 0x76, 0x29, 0x3d, 0x16, 0xd9,
    0x60, 0x3d, 0x6b, 0xcd, 0xa1, 0x3d, 0x89, 0x1a, 0xbf, 0x3d, 0xef, 0x4d,
    0xab, 0xbd, 0x42, 0x35, 0xa8, 0xbd, 0xf5, 0xf3, 0x88, 0x3d, 0x18, 0xe5,
    0x43, 0xbc, 0xf0, 0x45, 0x04, 0xbc, 0x07, 0x76, 0x82, 0xbd, 0xa5, 0x78,
    0x82, 0x3d, 0xf3, 0xc9, 0x83, 0x3d, 0x18, 0x10, 0x67, 0xbc, 0xec, 0xc1,
    0x7a, 0xbd, 0x9b, 0x00, 0xab, 0x3d, 0x89, 0x50, 0xad, 0x3d, 0xf0, 0x92,
    0x28, 0xbc, 0x13, 0x08, 0x83, 0xbd, 0x88, 0xb1, 0x8d, 0x3c, 0x80, 0xb6,
    0x68, 0xba, 0x02, 0x5f, 0x17, 0xbd, 0x8c, 0x97, 0xc4, 0xbd, 0x2e, 0xe9,
    0x78, 0x3d, 0x80, 0xad, 0xdd, 0xba, 0x3f, 0x7f, 0x86, 0x3d, 0x20, 0x65,
    0xd2, 0xbc, 0x38, 0x7c, 0x14, 0xbc, 0xfb, 0xcb, 0x53, 0xbd, 0x6b, 0x55,
    0x93, 0x3d, 0xeb, 0x6e, 0x9c, 0x3d, 0x96, 0x75, 0x26, 0x3d, 0x72, 0x26,
    0x64, 0x3d, 0xd0, 0xd0, 0x0c, 0xbc, 0xd8, 0x4f, 0xa5, 0x3c, 0xaa, 0x60,
    0x62, 0x3d, 0x3a, 0xbe, 0x14, 0x3d, 0x3e, 0x53, 0x17, 0xbd, 0x1e, 0x2a,
    0x31, 0x3d, 0x68, 0x7c, 0xda, 0x3c, 0xc4, 0x23, 0x94, 0x3c, 0xe1, 0x70,
    0x82, 0xbd, 0xee, 0xa8, 0x3e, 0x3d, 0xa1, 0xa2, 0x21, 0xbd, 0xf4, 0x04,
    0x8a, 0xbd, 0xc6, 0xb5, 0x31, 0x3d, 0xfa, 0xbf, 0xaf, 0xbd, 0x53, 0xe3,
    0x96, 0x3d, 0x02, 0xf6, 0xba, 0xbd, 0xff, 0xea, 0x9b, 0x3d, 0xb4, 0x67,
    0xf1, 0x3c, 0xfb, 0x94, 0xac, 0x3d, 0xa4, 0x57, 0x10, 0xbd, 0xfc, 0xd1,
    0xe2, 0x3c, 0x18, 0x02, 0x33, 0xbc, 0xf0, 0xb8, 0x90, 0x3c, 0x85, 0x5e,
    0x9d, 0x3d, 0x09, 0x9c, 0x4a, 0xbd, 0x28, 0xfa, 0x5d, 0xbc, 0x90, 0x6d,
    0xae, 0x3c, 0xc8, 0xbf, 0x8c, 0xbc, 0x7e, 0x7f, 0x0e, 0x3d, 0xb7, 0xb4,
    0xc0, 0x3d, 0x74, 0x4b, 0x83, 0x3c, 0x88, 0x72, 0xa3, 0xbd, 0x4c, 0x55,
    0x85, 0xbc, 0x2e, 0x8a, 0x32, 0x3d, 0x40, 0x72, 0x95, 0xbc, 0xcd, 0x2f,
    0x8b, 0x3d, 0xed, 0x92, 0x9e, 0x3d, 0x98, 0xf3, 0xf9, 0xbc, 0x8c, 0x74,
    0xa2, 0xbd, 0x76, 0x35, 0x35, 0x3d, 0xef, 0x93, 0x39, 0xbd, 0x76, 0xc4,
    0x70, 0x3d, 0x70, 0x1d, 0x03, 0xbc, 0x66, 0xa8, 0x4f, 0xbd, 0xc8, 0x3c,
    0x9d, 0xbd, 0xbe, 0x92, 0x40, 0xbd, 0x0c, 0x0c, 0xa5, 0x3c, 0x34, 0xb6,
    0x36, 0xbd, 0x1a, 0x55, 0x14, 0xbd, 0x20, 0x10, 0x18, 0x3b, 0x76, 0xf0,
    0x21, 0x3d, 0x71, 0x30, 0x93, 0xbd, 0x22, 0xc9, 0xb3, 0xbd, 0x0a, 0x89,
    0x56, 0x3d, 0xd4, 0xac, 0xef, 0x3c, 0x20, 0x8c, 0xe0, 0x3b, 0xd2, 0x5d,
    0x53, 0x3d, 0x8a, 0x6a, 0x47, 0xbd, 0x28, 0x7a, 0x9d, 0xbc, 0xa9, 0x6a,
    0xb4, 0xbd, 0x86, 0x87, 0x23, 0x3d, 0x84, 0xb6, 0xe9, 0xbc, 0x56, 0xad,
    0x4f, 0x3d, 0xd1, 0x34, 0xb4, 0x3d, 0x1a, 0x4c, 0x60, 0x3d, 0xc3, 0x40,
    0x0d, 0xbd, 0x72, 0x6f, 0x93, 0xbd, 0x89, 0x74, 0xab, 0x3d, 0x60, 0xb7,
    0x4b, 0xbc, 0x60, 0x50, 0xee, 0x3b, 0xb0, 0xc3, 0xc8, 0x3b, 0x65, 0x06,
    0xc1, 0x3d, 0x9a, 0x1b, 0x23, 0x3d, 0x2c, 0xb7, 0xad, 0xbc, 0xfd, 0xfc,
    0xb8, 0x3d, 0xd6, 0x0d, 0x71, 0x3d, 0xc2, 0xaf, 0x4f, 0x3d, 0x7f, 0xf9,
    0xc3, 0x3d, 0x30, 0xb0, 0xf7, 0x3b, 0x39, 0x36, 0x98, 0x3d, 0x2f, 0x55,
    0xb1, 0x3d, 0x7e, 0xd6, 0x53, 0x3d, 0xa0, 0x31, 0xca, 0xbc, 0x60, 0xf5,
    0xa0, 0xbc, 0xd3, 0x79, 0x92, 0x3d, 0x16, 0x20, 0x31, 0x3d, 0x3f, 0x36,
    0x76, 0xbd, 0xfe, 0xe5, 0x03, 0x3d, 0x52, 0x4d, 0x62, 0x3d, 0xda, 0x7d,
    0x5b, 0x3d, 0xcc, 0xcd, 0x93, 0xbd, 0x50, 0xa3, 0x35, 0xbc, 0x4a, 0xc4,
    0x0b, 0x3d, 0xce, 0x12, 0x0b, 0xbd, 0x65, 0x90, 0x34, 0xbd, 0x33, 0x41,
    0x90, 0x3d, 0x3c, 0xc8, 0x84, 0xbc, 0x1b, 0x59, 0xaa, 0x3d, 0xe9, 0x3f,
    0x91, 0xbd, 0xff, 0x37, 0xb9, 0xbd, 0x56, 0x8e, 0xa3, 0xbd, 0x3c, 0xe4,
    0xbd, 0xbd, 0x5f, 0xcd, 0xbf, 0x3d, 0x10, 0xda, 0x54, 0x3c, 0xae, 0x0e,
    0x94, 0xbd, 0x74, 0x23, 0xf9, 0xbc, 0x80, 0x18, 0x8c, 0x3c, 0x58, 0xdf,
    0x6f, 0x3c, 0x64, 0x99, 0x01, 0xbd, 0xbc, 0xfc, 0x97, 0xbd, 0x85, 0x46,
    0xc4, 0x3d, 0x2c, 0x6a, 0xb8, 0xbd, 0x40, 0x93, 0xb8, 0xba, 0x30, 0x5a,
    0x8c, 0xbb, 0x44, 0x22, 0xaf, 0xbc, 0xbe, 0xc1, 0x3c, 0xbd, 0x6c, 0x6a,
    0xa2, 0xbd, 0x5d, 0x1e, 0xaa, 0x3d, 0x59, 0x16, 0xb8, 0xbd, 0x29, 0x5e,
    0x93, 0x3d, 0x22, 0x93, 0x4e, 0x3d, 0xb0, 0x04, 0xac, 0xbb, 0x80, 0x06,
    0xe7, 0xbc, 0xcc, 0xec, 0x8f, 0x3c, 0x82, 0x79, 0xa8, 0xbd, 0xd2, 0xdc,
    0x5b, 0x3d, 0x73, 0x31, 0xb8, 0xbd, 0xe4, 0xd1, 0x63, 0xbd, 0x6f, 0x9c,
    0x85, 0x3d, 0x3d, 0xbb, 0x84, 0x3d, 0xad, 0xeb, 0xa3, 0x3d, 0x0c, 0x7d,
    0x08, 0xbd, 0x70, 0xf3, 0xbc, 0x3b, 0x4e, 0xaa, 0x63, 0x3d, 0x50, 0xfc,
    0x97, 0xbc, 0x3c, 0x06, 0xa8, 0x3c, 0x34, 0xd0, 0x64, 0xbd, 0x68, 0x6c,
    0x9d, 0xbc, 0x66, 0x2b, 0x22, 0x3d, 0x07, 0x4a, 0xaa, 0x3d, 0x97, 0xfb,
    0x98, 0x3d, 0x1c, 0x20, 0x77, 0xbd, 0xf8, 0x2d, 0x9c, 0xbd, 0xa5, 0xd1,
    0x77, 0xbd, 0x68, 0x17, 0xa0, 0xbc, 0xd8, 0x32, 0x8d, 0x3c, 0x34, 0x38,
    0xcd, 0x3c, 0xee, 0x0a, 0x24, 0x3d, 0xba, 0x05, 0x57, 0xbd, 0x14, 0x13,
    0xb4, 0xbc, 0x89, 0x5d, 0xa8, 0x3d, 0x91, 0x07, 0xb7, 0xbd, 0x5c, 0xf7,
    0xd3, 0xbc, 0x70, 0x32, 0x63, 0x3c, 0x00, 0xaf, 0x61, 0xba, 0x36, 0x69,
    0x35, 0xbd, 0x65, 0x67, 0xc3, 0x3d, 0xf4, 0x29, 0x9c, 0xbd, 0x9e, 0xc5,
    0x72, 0x3d, 0xcc, 0xe0, 0x8f, 0x3c, 0xac, 0xfe, 0xc3, 0x3c, 0xf8, 0x8c,
    0xbe, 0xbd, 0x5f, 0xc3, 0x43, 0xbd, 0xed, 0xc9, 0x12, 0xbd, 0xe0, 0xd0,
    0xeb, 0x3b, 0x11, 0x27, 0xb0, 0x3d, 0x00, 0x8a, 0x85, 0xbd, 0xb0, 0x45,
    0x68, 0xbc, 0xcc, 0x2a, 0x62, 0xbd, 0xed, 0xa5, 0x9a, 0x3d, 0x60, 0x2f,
    0xc7, 0x3b, 0x50, 0xca, 0x1d, 0x3c, 0x4a, 0x54, 0x3e, 0x3d, 0xf7, 0xc4,
    0x86, 0xbd, 0x08, 0x9d, 0x88, 0xbd, 0x6e, 0xe9, 0xbd, 0xbd, 0xfe, 0xb9,
    0x91, 0xbd, 0xa0, 0x6f, 0x34, 0x3c, 0xed, 0x3e, 0xba, 0xbd, 0x93, 0xf7,
    0xbc, 0xbd, 0x9e, 0x60, 0xad, 0xbd, 0x80, 0xb5, 0x9f, 0x3b, 0x1f, 0xf9,
    0x64, 0xbd, 0x15, 0x44, 0xbc, 0x3d, 0x86, 0xe8, 0x7f, 0x3d, 0x45, 0x10,
    0x43, 0xbd, 0x82, 0x28, 0x5f, 0xbd, 0x90, 0xb6, 0x23, 0x3c, 0xc5, 0x49,
    0x24, 0xbd, 0x52, 0xd5, 0xa4, 0xbd, 0xfa, 0x14, 0x1a, 0x3d, 0xca, 0x40,
    0x1d, 0x3d, 0xf1, 0x3b, 0x80, 0x3d, 0x16, 0x2b, 0x09, 0x3d, 0xc4, 0x99,
    0xaf, 0xbc, 0xf8, 0x01, 0xc1, 0x3c, 0x00, 0x45, 0x3e, 0x3a, 0x4c, 0xbe,
    0x97, 0xbd, 0xb9, 0x1e, 0x86, 0xbd, 0x7e, 0xaf, 0x29, 0x3d, 0x16, 0x2a,
    0x7d, 0x3d, 0xb6, 0x47, 0x2a, 0x3d, 0x8a, 0x63, 0x2a, 0x3d, 0x53, 0x0e,
    0x8a, 0x3d, 0x8c, 0x36, 0x8a, 0xbc, 0x73, 0xd1, 0x6a, 0xbd, 0x7f, 0xb8,
    0xb4, 0xbd, 0x3a, 0xa3, 0x68, 0xbd, 0xe4, 0x80, 0xd8, 0xbc, 0x0b, 0xb8,
    0x95, 0xbd, 0x91, 0x24, 0x83, 0x3d, 0xcd, 0x34, 0x93, 0x3d, 0x49, 0x52,
    0xa3, 0x3d, 0x6e, 0xb3, 0x48, 0x3d, 0xc2, 0x7b, 0x56, 0xbd, 0x8d, 0x4a,
    0x95, 0x3d, 0xd8, 0xe1, 0x2f, 0x3c, 0xf0, 0xde, 0xe5, 0x3c, 0x20, 0x30,
    0x3d, 0xbc, 0xde, 0xa8, 0x7a, 0x3d, 0x4c, 0x1c, 0xe7, 0xbc, 0x23, 0x62,
    0x8a, 0x3d, 0x6f, 0xe9, 0x98, 0x3d, 0x09, 0x3a, 0x8b, 0xbd, 0x99, 0x3e,
    0xa1, 0xbd, 0x67, 0xf8, 0xa6, 0x3d, 0xf0, 0x76, 0xbf, 0xbb, 0xa4, 0xc1,
    0xe8, 0xbc, 0xc8, 0xfd, 0x22, 0xbc, 0x03, 0x27, 0xc0, 0x3d, 0x06, 0x05,
    0x9f, 0xbd, 0x27, 0x10, 0xbe, 0xbd, 0x2e, 0xa8, 0x52, 0x3d, 0x18, 0x32,
    0xa1, 0xbc, 0x10, 0x28, 0x02, 0xbd, 0x80, 0x14, 0x11, 0xbc, 0xd0, 0x55,
    0x50, 0xbd, 0x20, 0x8c, 0x2e, 0xbc, 0xc5, 0xa1, 0xa3, 0xbd, 0x15, 0xe2,
    0xbb, 0x3d, 0x20, 0xab, 0x78, 0xbb, 0x6a, 0xd9, 0x01, 0x3d, 0xe8, 0x2b,
    0x12, 0xbc, 0x9f, 0xc3, 0xb5, 0xbd, 0x2f, 0x41, 0x16, 0xbd, 0xab, 0x9d,
    0x61, 0xbd, 0xde, 0x6b, 0xbc, 0xbd, 0x9e, 0x63, 0x24, 0x3d, 0x91, 0x2c,
    0x28, 0xbd, 0x40, 0x7c, 0x96, 0x3b, 0xd0, 0xcd, 0x89, 0xbb, 0xb6, 0xec,
    0x16, 0x3d, 0xe3, 0x49, 0xb6, 0x3d, 0x40, 0x01, 0x6e, 0xbb, 0xa7, 0xcc,
    0x91, 0x3d, 0x00, 0xd4, 0xc0, 0x3a, 0x56, 0x65, 0x42, 0xbd, 0xa0, 0xb8,
    0x3a, 0xbb, 0xf3, 0x74, 0x18, 0xbd, 0xb8, 0xb9, 0xff, 0xbc, 0xce, 0x67,
    0x1c, 0x3d, 0xee, 0x3b, 0x35, 0x3d, 0xa1, 0xcc, 0x92, 0xbd, 0x4c, 0x9f,
    0xc2, 0x3c, 0xff, 0x73, 0xa0, 0x3d, 0xe1, 0x3c, 0x98, 0x3d, 0x44, 0xe2,
    0x09, 0xbd, 0xc1, 0x17, 0xc4, 0x3d, 0x7c, 0x88, 0x8a, 0xbd, 0x3a, 0xd2,
    0x8f, 0xbd, 0xe3, 0x81, 0xb0, 0xbd, 0x70, 0xf1, 0x1e, 0x3c, 0xc6, 0x2e,
    0x75, 0xbd, 0xd4, 0x56, 0xcd, 0x3c, 0x5a, 0xe2, 0x93, 0xbd, 0x1c, 0xf9,
    0x98, 0xbc, 0x75, 0x25, 0xac, 0x3d, 0x48, 0xea, 0xe6, 0xbc, 0x80, 0x55,
    0x1c, 0x3b, 0x52, 0x81, 0x24, 0x3d, 0x22, 0xa2, 0x27, 0x3d, 0xb2, 0x3a,
    0x37, 0x3d, 0x80, 0x46, 0x0e, 0x3b, 0x4e, 0xd0, 0xa4, 0xbd, 0x92, 0x6c,
    0x21, 0x3d, 0x2f, 0x35, 0xab, 0x3d, 0xa8, 0x49, 0x1e, 0xbd, 0xd0, 0x91,
    0x58, 0x3c, 0x9f, 0xeb, 0x8c, 0xbd, 0xf1, 0x23, 0x87, 0x3d, 0xa4, 0x78,
    0xf8, 0x3c, 0xb0, 0x55, 0x30, 0xbd, 0xf6, 0x15, 0x46, 0x3d, 0x5e, 0x7e,
    0x34, 0x3d, 0x39, 0xcb, 0x9e, 0x3d, 0x30, 0x08, 0xb2, 0xbb, 0x38, 0xe4,
    0x4b, 0x3c, 0x18, 0x9a, 0xb1, 0x3c, 0x38, 0x5b, 0x76, 0x3c, 0x28, 0xb6,
    0xa0, 0x3c, 0x28, 0x69, 0xef, 0xbc, 0xae, 0x88, 0x20, 0x3d, 0x18, 0x5d,
    0xd3, 0xbc, 0x47, 0x62, 0x8f, 0x3d, 0x40, 0x30, 0x95, 0xbb, 0xea, 0xf9,
    0x1d, 0x3d, 0x7d, 0x01, 0x87, 0x3d, 0xb9, 0x2a, 0x9e, 0xbd, 0x91, 0x11,
    0xb3, 0x3d, 0x61, 0x09, 0x61, 0xbd, 0xe1, 0x35, 0x94, 0x3d, 0x70, 0x1f,
    0xd3, 0xbb, 0x35, 0x51, 0xae, 0x3d, 0xbb, 0xaf, 0x3d, 0xbd, 0xf8, 0xe2,
    0x99, 0xbd, 0xf7, 0x08, 0x97, 0x3d, 0x72, 0x87, 0x06, 0xbd, 0x83, 0x7c,
    0xa4, 0x3d, 0x3a, 0x47, 0x3d, 0xbd, 0x46, 0x90, 0x39, 0x3d, 0x20, 0xd0,
    0x18, 0x3c, 0xa9, 0x92, 0xaf, 0x3d, 0xd0, 0x6b, 0x8c, 0xbd, 0x7b, 0xcb,
    0x1c, 0xbd, 0x40, 0x09, 0x18, 0xbb, 0xbd, 0x17, 0x35, 0xbd, 0x15, 0xa0,
    0x86, 0x3d, 0xa1, 0x56, 0xa6, 0x3d, 0x53, 0x33, 0xa2, 0xbd, 0xa8, 0x5b,
    0x07, 0x3c, 0x64, 0x74, 0x5f, 0xbd, 0x59, 0x27, 0x8d, 0x3d, 0x16, 0xe3,
    0x32, 0x3d, 0x28, 0xd6, 0x94, 0x3c, 0x1b, 0xbc, 0x9e, 0xbd, 0x18, 0x8f,
    0xbd, 0xbd, 0x00, 0x7f, 0xcf, 0x3c, 0x10, 0x05, 0x95, 0xbb, 0xb9, 0xfc,
    0x6f, 0xbd, 0xf3, 0x48, 0xa6, 0xbd, 0x00, 0x33, 0xd1, 0x3c, 0x02, 0xc7,
    0x84, 0xbd, 0x7e, 0xf6, 0x75, 0xbd, 0xae, 0x72, 0x60, 0x3d, 0x0e, 0x0e,
    0x9d, 0xbd, 0xae, 0xa5, 0x6b, 0x3d, 0xd1, 0x04, 0x8e, 0xbd, 0x47, 0xc0,
    0x48, 0xbd, 0xe6, 0xce, 0x1c, 0x3d, 0x79, 0xec, 0xc4, 0x3d, 0xdc, 0x6a,
    0xe1, 0x3c, 0x11, 0xde, 0x86, 0xbd, 0x8c, 0x62, 0x4e, 0xbd, 0x6f, 0xcd,
    0x50, 0xbd, 0x10, 0xdc, 0xdc, 0x3b, 0xc9, 0x56, 0xb0, 0xbd, 0x45, 0x81,
    0x28, 0xbd, 0x27, 0x9d, 0xb4, 0xbd, 0x94, 0xed, 0x2a, 0xbd, 0x4d, 0x2e,
    0xc1, 0x3d, 0x9c, 0xe1, 0xb1, 0x3c, 0x1a, 0x12, 0x75, 0x3d, 0xcc, 0xa4,
    0xfb, 0xbc, 0x34, 0xad, 0xad, 0x3c, 0x7e, 0xc4, 0x1b, 0x3d, 0xcc, 0x7e,
    0xf3, 0x3c, 0x56, 0xd1, 0x30, 0x3d, 0xce, 0x39, 0x03, 0xbd, 0xa2, 0x37,
    0x70, 0x3d, 0x4e, 0x4f, 0x09, 0xbd, 0x63, 0xd6, 0xc3, 0xbd, 0x79, 0xb5,
    0x97, 0xbd, 0x94, 0x11, 0xc0, 0x3c, 0xa0, 0xf3, 0xea, 0xbb, 0x20, 0x94,
    0xcd, 0x3c, 0x33, 0x8c, 0xb3, 0x3d, 0xb6, 0x3b, 0x7f, 0x3d, 0xc0, 0xee,
    0xc7, 0x3b, 0x56, 0x4f, 0x07, 0x3d, 0x26, 0xdc, 0x09, 0x3d, 0x4d, 0x72,
    0x95, 0x3d, 0xff, 0x52, 0xbc, 0x3d, 0xb2, 0x70, 0x41, 0x3d, 0x78, 0x3d,
    0xed, 0xbc, 0xee, 0x50, 0x5a, 0xbd, 0xa5, 0x6d, 0x5b, 0xbd, 0x1a, 0x35,
    0x14, 0x3d, 0xf8, 0xe6, 0x87, 0xbc, 0xf4, 0x47, 0x8a, 0xbc, 0x00, 0x9c,
    0x02, 0xba, 0x60, 0x03, 0x6d, 0x3b, 0x55, 0xe0, 0x88, 0x3d, 0x91, 0xdf,
    0xa5, 0x3d, 0x48, 0x41, 0x82, 0xbd, 0x38, 0x1b, 0x0f, 0x3c, 0x38, 0x05,
    0xa5, 0xbd, 0x15, 0x1d, 0xc3, 0x3d, 0x1c, 0xbf, 0xee, 0xbc, 0xcb, 0xa3,
    0x9a, 0x3d, 0x80, 0x7f, 0x95, 0xbd, 0x85, 0x91, 0xac, 0x3d, 0x4e, 0x1f,
    0xb1, 0xbd, 0x9a, 0x33, 0xb5, 0xbd, 0x40, 0x07, 0xed, 0x3a, 0x44, 0xc7,
    0xee, 0x3c, 0x5b, 0x71, 0xc4, 0x3d, 0x54, 0x2e, 0x95, 0xbd, 0xe0, 0xc1,
    0x4c, 0xbb, 0x39, 0x56, 0x8d, 0x3d, 0xe2, 0xb8, 0xa1, 0xbd, 0xa0, 0xaf,
    0x77, 0x3b, 0x28, 0xba, 0xca, 0x3c, 0x17, 0x67, 0xae, 0x3d, 0x00, 0xe8,
    0x4e, 0x39, 0x47, 0x6e, 0xa2, 0x3d, 0x64, 0x19, 0x1b, 0xbd, 0x9e, 0xce,
    0xac, 0xbd, 0x6e, 0xb9, 0x2a, 0x3d, 0xa1, 0xda, 0xbb, 0x3d, 0x80, 0x71,
    0x49, 0x3c, 0x1c, 0x16, 0x98, 0xbc, 0xda, 0x99, 0x25, 0x3d, 0x27, 0xaa,
    0x87, 0x3d, 0x4d, 0xbb, 0xa6, 0x3d, 0x78, 0x97, 0x70, 0xbc, 0xb2, 0x92,
    0x0d, 0xbd, 0x43, 0x17, 0x53, 0xbd, 0xc9, 0x1e, 0x99, 0x3d, 0xf0, 0x23,
    0x52, 0xbc, 0x02, 0xb6, 0x39, 0x3d, 0xec, 0x58, 0xe3, 0x3c, 0xd7, 0xac,
    0xa1, 0x3d, 0x50, 0x7a, 0x44, 0x3c, 0x20, 0xb4, 0xb9, 0xbc, 0x80, 0x27,
    0xfa, 0xba, 0x50, 0xd7, 0xfc, 0xbc, 0xd5, 0x90, 0xb2, 0x3d, 0x87, 0xa2,
    0x83, 0x3d, 0x80, 0x63, 0x3b, 0xbc, 0xd0, 0xa2, 0x2a, 0xbc, 0x95, 0x14,
    0xac, 0x3d, 0x08, 0x5c, 0xbe, 0x3c, 0x75, 0x44, 0x6e, 0xbd, 0x80, 0x6c,
    0x68, 0x3a, 0x0e, 0xf3, 0x3a, 0xbd, 0x23, 0x89, 0xa4, 0xbd, 0xe0, 0x31,
    0xd7, 0x3b, 0x14, 0x97, 0xe9, 0xbc, 0xb8, 0x9c, 0x18, 0x3c, 0xf2, 0xda,
    0x84, 0xbd, 0xb0, 0x59, 0xc3, 0xbd, 0x7d, 0xbb, 0xb1, 0xbd, 0x82, 0x3f,
    0x75, 0x3d, 0x1a, 0x97, 0x56, 0x3d, 0xfa, 0x30, 0x08, 0xbd, 0xb9, 0xa2,
    0xb2, 0x3d, 0xc7, 0xda, 0x38, 0xbd, 0x3c, 0x1e, 0xa6, 0xbd, 0xaa, 0xa5,
    0x16, 0x3d, 0x76, 0x27, 0x11, 0xbd, 0x49, 0x87, 0xa3, 0x3d, 0xdd, 0x1e,
    0x89, 0x3d, 0x62, 0xc6, 0x0f, 0x3d, 0x00, 0xe6, 0xe0, 0x3c, 0xf8, 0x28,
    0x91, 0xbd, 0xcc, 0x8b, 0xa3, 0xbc, 0x45, 0x01, 0x86, 0x3d, 0x3e, 0xdb,
    0x26, 0x3d, 0xfa, 0xdd, 0xb4, 0xbd, 0x35, 0x4d, 0xc0, 0x3d, 0xa1, 0xe5,
    0x95, 0xbd, 0x05, 0x0d, 0xbc, 0x3d, 0x80, 0xff, 0x5b, 0xbc, 0x14, 0x4d,
    0x01, 0xbd, 0xfb, 0xb2, 0xba, 0x3d, 0xcc, 0x86, 0x8b, 0xbd, 0xf3, 0xd6,
    0x9c, 0x3d, 0x00, 0xc9, 0xf7, 0x3a, 0xfa, 0x70, 0x6e, 0x3d, 0xdc, 0xfd,
    0xff, 0xbc, 0xad, 0x00, 0xab, 0x3d, 0xc2, 0xf2, 0x64, 0x3d, 0x2c, 0x23,
    0xe2, 0x3c, 0xa0, 0x68, 0x07, 0xbd, 0x8b, 0x44, 0x89, 0x3d, 0x5a, 0xd6,
    0x70, 0x3d, 0x92, 0xc6, 0x4f, 0x3d, 0x02, 0xdc, 0x22, 0x3d, 0x6a, 0x70,
    0x5b, 0x3d, 0x0a, 0xa8, 0x99, 0xbd, 0x63, 0xc9, 0x8f, 0x3d, 0x34, 0x00,
    0xff, 0x3c, 0x68, 0x82, 0x66, 0x3c, 0xb5, 0xf6, 0xb1, 0xbd, 0xc1, 0x4a,
    0x28, 0xbd, 0x3e, 0x7b, 0x6c, 0xbd, 0xe0, 0x2c, 0x5e, 0x3b, 0x28, 0xec,
    0x46, 0xbc, 0xee, 0xc7, 0xbb, 0xbd, 0x27, 0x3e, 0x87, 0xbd, 0xbb, 0x21,
    0xb7, 0x3d, 0x04, 0x32, 0xe8, 0xbc, 0xdf, 0xf3, 0x80, 0x3d, 0xc0, 0x07,
    0xeb, 0xba, 0x5f, 0x1f, 0x80, 0xbd, 0xea, 0x16, 0x86, 0xbd, 0x7e, 0x58,
    0x4a, 0x3d, 0x30, 0xd5, 0xba, 0x3c, 0x26, 0xa6, 0x42, 0xbd, 0xca, 0x20,
    0x84, 0xbd, 0xc8, 0xc1, 0xc3, 0xbd, 0xf8, 0x49, 0x45, 0xbc, 0xff, 0x5d,
    0xa8, 0x3d, 0x7b, 0x1d, 0xb3, 0xbd, 0xd0, 0xd7, 0xa8, 0x3c, 0x9c, 0x6a,
    0x9b, 0xbd, 0xca, 0xca, 0x48, 0x3d, 0x18, 0xed, 0xae, 0xbd, 0xee, 0x4f,
    0x3d, 0x3d, 0x87, 0x7e, 0x79, 0xbd, 0x16, 0x48, 0x66, 0x3d, 0x40, 0xc9,
    0x5d, 0x3c, 0x75, 0x20, 0xc3, 0xbd, 0x58, 0xc8, 0x80, 0xbc, 0xb4, 0x9c,
    0x81, 0xbd, 0xd8, 0xac, 0xe6, 0x3c, 0x6c, 0x64, 0x0d, 0xbd, 0x33, 0x5b,
    0xc1, 0xbd, 0x82, 0x41, 0x70, 0x3d, 0xb8, 0x52, 0x2f, 0xbc, 0x9c, 0xde,
    0xea, 0x3c, 0xb0, 0x70, 0x8f, 0xbb, 0x42, 0xbb, 0x50, 0x3d, 0x98, 0x81,
    0xe4, 0x3c, 0x00, 0x44, 0xd7, 0x38, 0xd0, 0x3e, 0xad, 0x3c, 0xb8, 0xff,
    0x96, 0xbc, 0x60, 0x29, 0x39, 0x3c, 0xf0, 0xcd, 0xee, 0xbb, 0xa0, 0xc3,
    0x89, 0xbc, 0xca, 0xa9, 0x46, 0x3d, 0xa1, 0x60, 0xbe, 0xbd, 0xf5, 0x8b,
    0x7b, 0xbd, 0x2f, 0x99, 0x50, 0xbd, 0x24, 0xad, 0xd9, 0xbc, 0x48, 0xec,
    0xab, 0xbc, 0xfe, 0xfb, 0x52, 0xbd, 0x40, 0x84, 0xd7, 0x3c, 0x7d, 0x78,
    0x3c, 0xbd, 0xfa, 0x72, 0x6a, 0xbd, 0x6c, 0xdf, 0xae, 0x3c, 0xbc, 0x2d,
    0x63, 0xbd, 0x2e, 0x3a, 0x2f, 0x3d, 0x8c, 0xe9, 0x0c, 0xbd, 0x4a, 0xdd,
    0x78, 0x3d, 0x26, 0xa8, 0xb2, 0xbd, 0x9e, 0x24, 0x40, 0x3d, 0xa7, 0x97,
    0xa4, 0x3d, 0x00, 0xcc, 0xfe, 0xbb, 0x93, 0x76, 0xc3, 0xbd, 0x20, 0x7c,
    0x7f, 0xbb, 0x50, 0x72, 0xf5, 0xbb, 0x39, 0x9e, 0x9c, 0xbd, 0x38, 0x40,
    0xe7, 0x3c, 0xf7, 0x0e, 0xb2, 0xbd, 0x64, 0x51, 0x11, 0xbd, 0x78, 0x88,
    0x9f, 0xbd, 0x6a, 0x28, 0x62, 0x3d, 0x16, 0x83, 0x01, 0xbd, 0xa0, 0x9a,
    0x9e, 0xbc, 0xd9, 0x33, 0x39, 0xbd, 0xd2, 0x78, 0x0d, 0xbd, 0xd4, 0x91,
    0xd2, 0x3c, 0xc4, 0x14, 0xd8, 0x3c, 0x70, 0x61, 0xa3, 0xbd, 0x38, 0x01,
    0xa3, 0xbd, 0x78, 0x58, 0x90, 0xbd, 0xa0, 0xbe, 0x39, 0x3b, 0x40, 0xd9,
    0xb6, 0x3a, 0x4f, 0xc2, 0x8f, 0x3d, 0xab, 0x5c, 0x9f, 0x3d, 0x50, 0x80,
    0xa6, 0x3b, 0x80, 0xd1, 0xbc, 0x3b, 0x8d, 0x0e, 0x82, 0x3d, 0x14, 0x8d,
    0xd5, 0x3c, 0x6a, 0xe5, 0x24, 0xbd, 0xd8, 0x8f, 0xb0, 0x3c, 0xa8, 0x48,
    0x1a, 0x3c, 0xc3, 0x6d, 0xab, 0x3d, 0xa3, 0x4a, 0xb0, 0x3d, 0xf4, 0xb1,
    0xee, 0x3c, 0x4d, 0xca, 0x81, 0x3d, 0x1b, 0xff, 0x88, 0x3d, 0xdd, 0x85,
    0x95, 0x3d, 0x40, 0x44, 0x89, 0x3b, 0x2c, 0xa8, 0x99, 0xbd, 0xf5, 0x78,
    0xad, 0x3d, 0x38, 0x8c, 0xe9, 0xbc, 0x78, 0x10, 0x2f, 0x3c, 0x25, 0x14,
    0x58, 0xbd, 0xc5, 0x05, 0x7c, 0xbd, 0x2b, 0x1b, 0xc3, 0x3d, 0x31, 0xb6,
    0xac, 0x3d, 0x3f, 0xed, 0xa1, 0x3d, 0xed, 0x2b, 0xaf, 0x3d, 0xb1, 0x5f,
    0x9b, 0x3d, 0x32, 0x4c, 0xbc, 0xbd, 0x23, 0x04, 0xba, 0x3d, 0x17, 0x4d,
    0xb3, 0x3d, 0x39, 0x77, 0x91, 0x3d, 0x00, 0xa6, 0xb0, 0x3b, 0x4c, 0xce,
    0xbf, 0x3c, 0x4d, 0xc0, 0xb2, 0x3d, 0xd2, 0xa2, 0x13, 0x3d, 0x54, 0x49,
    0xc7, 0x3c, 0x30, 0x33, 0x4a, 0xbc, 0x1c, 0x2e, 0xce, 0xbc, 0x81, 0x3e,
    0xa9, 0xbd, 0xc0, 0x8f, 0x74, 0xbc, 0x60, 0x33, 0xb1, 0x3c, 0x06, 0xd3,
    0x69, 0x3d, 0xb6, 0x45, 0x5a, 0x3d, 0x02, 0xa9, 0x84, 0xbd, 0x80, 0x90,
    0x39, 0xbc, 0xa7, 0xe5, 0xbf, 0x3d, 0x9e, 0x02, 0x99, 0xbd, 0xa3, 0xed,
    0xbb, 0x3d, 0xee, 0x1b, 0x56, 0x3d, 0x66, 0x4b, 0x19, 0x3d, 0xd4, 0x9b,
    0xa0, 0x3c, 0x00, 0x76, 0x5a, 0x3c, 0x90, 0xb4, 0x58, 0xbd, 0x39, 0xdd,
    0x1f, 0xbd, 0x08, 0x3e, 0x22, 0xbd, 0xf4, 0x75, 0xe3, 0x3c, 0x9e, 0xd1,
    0x8c, 0xbd, 0x6b, 0x2b, 0x0f, 0xbd, 0xfc, 0xf6, 0x83, 0xbc, 0xc3, 0x3a,
    0xb5, 0xbd, 0x16, 0x69, 0x6a, 0x3d, 0xf4, 0x10, 0x3c, 0xbd, 0x05, 0xfc,
    0x9b, 0xbd, 0xb4, 0x4f, 0x11, 0xbd, 0x2f, 0x53, 0x8c, 0xbd, 0x5c, 0x28,
    0xdf, 0x3c, 0x1a, 0x8b, 0x5c, 0x3d, 0x93, 0x5d, 0x8f, 0x3d, 0xf2, 0xa9,
    0x60, 0x3d, 0xa0, 0x80, 0xb5, 0xbd, 0x7d, 0x05, 0xb0, 0x3d, 0x37, 0x22,
    0xaa, 0x3d, 0xf8, 0xcd, 0x5e, 0xbd, 0x58, 0xe0, 0xb7, 0x3c, 0x5d, 0x7c,
    0xb2, 0xbd, 0xfc, 0x61, 0xfa, 0xbc, 0x69, 0xfa, 0xb7, 0x3d, 0xcd, 0xe8,
    0x91, 0x3d, 0x80, 0xeb, 0x53, 0x3b, 0x52, 0x02, 0x6e, 0xbd, 0x4c, 0x05,
    0xe9, 0x3c, 0xb8, 0x76, 0xaa, 0xbd, 0x60, 0xa6, 0x54, 0xbc, 0xb6, 0xdc,
    0x91, 0xbd, 0x98, 0x5f, 0xb1, 0xbc, 0xd4, 0xa1, 0x47, 0xbd, 0x50, 0xc5,
    0xa0, 0xbb, 0x31, 0x9a, 0xb6, 0x3d, 0x98, 0x06, 0xb5, 0xbd, 0xac, 0xf3,
    0xb9, 0xbd, 0x1f, 0xf5, 0xa8, 0x3d, 0x99, 0xfe, 0xa4, 0x3d, 0xb0, 0x49,
    0x3d, 0xbd, 0x89, 0x2d, 0xac, 0xbd, 0xe8, 0xb9, 0x30, 0x3c, 0x8a, 0x49,
    0x74, 0xbd, 0x51, 0x02, 0x97, 0x3d, 0x38, 0x87, 0x48, 0xbc, 0x25, 0x1e,
    0xc4, 0xbd, 0x57, 0xfc, 0x4b, 0xbd, 0xee, 0x55, 0x46, 0x3d, 0xca, 0xed,
    0x21, 0x3d, 0xe0, 0xbf, 0x6c, 0xbb, 0x7f, 0xe9, 0x54, 0xbd, 0xdc, 0x26,
    0x10, 0xbd, 0x3b, 0xec, 0xa1, 0x3d, 0x00, 0x41, 0x5e, 0xba, 0x04, 0x39,
    0x81, 0xbd, 0x20, 0xb2, 0xca, 0x3b, 0x27, 0xa5, 0x36, 0xbd, 0x60, 0x7b,
    0x48, 0x3c, 0xde, 0x4d, 0x6a, 0xbd, 0xbd, 0x06, 0xc0, 0x3d, 0x07, 0xe1,
    0xa1, 0x3d, 0x05, 0xf9, 0x44, 0xbd, 0x88, 0xe7, 0x6c, 0xbc, 0xa0, 0x78,
    0xa1, 0xbd, 0xe6, 0x8e, 0x02, 0xbd, 0x70, 0x40, 0x88, 0xbb, 0x10, 0x65,
    0x2f, 0x3c, 0x96, 0xdb, 0x61, 0xbd, 0x2a, 0x76, 0x11, 0xbd, 0x0c, 0x13,
    0x2e, 0xbd, 0x4e, 0xf7, 0x14, 0x3d, 0x2d, 0x60, 0x20, 0xbd, 0xdd, 0x97,
    0xc1, 0x3d, 0xa9, 0x0f, 0xa2, 0x3d, 0xe3, 0x17, 0x43, 0xbd, 0xf0, 0x06,
    0xb2, 0xbc, 0xa4, 0x65, 0x8c, 0xbd, 0x30, 0x34, 0xd0, 0x3b, 0xc8, 0xe7,
    0xc8, 0x3c, 0xf2, 0x6e, 0x57, 0x3d, 0x8a, 0x04, 0x11, 0x3d, 0xbc, 0x0f,
    0xf9, 0xbc, 0x22, 0x53, 0x00, 0x3d, 0x6b, 0x24, 0xb6, 0x3d, 0xf1, 0x5b,
    0x99, 0xbd, 0x12, 0xbd, 0x58, 0x3d, 0xf6, 0xf9, 0x67, 0xbd, 0x14, 0x0b,
    0x8b, 0xbd, 0x66, 0xc4, 0x06, 0xbd, 0x83, 0x83, 0xbd, 0x3d, 0x57, 0x06,
    0x71, 0xbd, 0xd0, 0x67, 0xb5, 0x3b, 0x4b, 0xee, 0x8e, 0xbd, 0x62, 0x03,
    0x67, 0x3d, 0xc8, 0x2e, 0x4c, 0x3c, 0xde, 0xed, 0xbc, 0xbd, 0x90, 0x18,
    0xe7, 0x3b, 0xee, 0x40, 0x00, 0x3d, 0x6a, 0xfa, 0x17, 0x3d, 0x9e, 0xdf,
    0x07, 0xbd, 0xe0, 0x1a, 0xf3, 0xbc, 0xba, 0x6f, 0x38, 0x3d, 0xca, 0x57,
    0x44, 0x3d, 0xe0, 0x7a, 0x41, 0xbc, 0xfa, 0x46, 0x30, 0x3d, 0x57, 0xe0,
    0x82, 0x3d, 0x5a, 0xca, 0xb2, 0xbd, 0x4a, 0xbf, 0x35, 0x3d, 0xe0, 0xf8,
    0x25, 0x3c, 0x4a, 0x72, 0x20, 0x3d, 0x76, 0x51, 0xad, 0xbd, 0x5c, 0xf4,
    0x88, 0x3c, 0x43, 0xe8, 0xc3, 0x3d, 0xa2, 0x30, 0x5c, 0x3d, 0x70, 0xf6,
    0xed, 0xbb, 0x37, 0x30, 0xb1, 0x3d, 0x51, 0x77, 0xc5, 0x3d, 0x9b, 0x88,
    0x9e, 0x3d, 0xc9, 0xa9, 0x83, 0x3d, 0xc0, 0x78, 0xc8, 0xba, 0x90, 0xd0,
    0x8e, 0xbc, 0x74, 0x4a, 0xb8, 0xbd, 0x70, 0x8e, 0xd8, 0x3c, 0xe0, 0xb7,
    0xd3, 0xbb, 0x10, 0xf9, 0x9d, 0xbb, 0xba, 0xbc, 0x5f, 0x3d, 0xed, 0xf2,
    0x84, 0x3d, 0x3c, 0x78, 0xac, 0xbd, 0xb0, 0x14, 0xe1, 0x3c, 0x80, 0xbb,
    0x22, 0x3a, 0x00, 0x0d, 0x3a, 0x3b, 0xa7, 0x14, 0x87, 0x3d, 0xc4, 0x47,
    0x97, 0x3c, 0xd6, 0xd2, 0x74, 0x3d, 0xee, 0x3d, 0x25, 0xbd, 0xd5, 0x8c,
    0xb1, 0xbd, 0x9b, 0xf7, 0xad, 0xbd, 0x27, 0x8a, 0xac, 0x3d, 0x13, 0x13,
    0x9c, 0x3d, 0xe6, 0x85, 0x6e, 0x3d, 0xd5, 0x8f, 0x91, 0x3d, 0x90, 0x81,
    0xc8, 0xbb, 0x86, 0xe4, 0x46, 0xbd, 0xec, 0x27, 0xa0, 0xbd, 0xb2, 0x71,
    0x60, 0x3d, 0xb8, 0x32, 0x32, 0xbc, 0x79, 0xe0, 0xa4, 0x3d, 0x50, 0x62,
    0x12, 0xbc, 0x6b, 0xdf, 0x64, 0xbd, 0x20, 0x2c, 0x57, 0xbb, 0x77, 0xf6,
    0x99, 0x3d, 0xbf, 0xe0, 0x92, 0x3d, 0xf8, 0xeb, 0x6c, 0xbd, 0x4e, 0xde,
    0x11, 0xbd, 0x95, 0x61, 0x8c, 0x3d, 0xae, 0x12, 0x32, 0x3d, 0xa8, 0xb4,
    0x84, 0xbc, 0x70, 0x6a, 0xcd, 0x3b, 0x70, 0xf3, 0xa2, 0xbd, 0xca, 0x8b,
    0x1f, 0x3d, 0xee, 0xab, 0x24, 0xbd, 0x7d, 0x0e, 0xaf, 0xbd, 0x55, 0x6d,
    0xaf, 0xbd, 0x5b, 0xc1, 0x9a, 0x3d, 0x00, 0x5e, 0x76, 0x3b, 0xc8, 0x2b,
    0xd2, 0x3c, 0xa4, 0x6c, 0xae, 0xbc, 0xda, 0xa4, 0x40, 0xbd, 0x0a, 0x6a,
    0x58, 0x3d, 0x59, 0x95, 0xa4, 0x3d, 0x12, 0x39, 0x95, 0xbd, 0x4a, 0xc5,
    0x69, 0x3d, 0x18, 0xb9, 0x25, 0xbd, 0x80, 0x7e, 0x7f, 0xbc, 0x5b, 0x83,
    0xa7, 0x3d, 0xef, 0xd8, 0x83, 0xbd, 0x86, 0x55, 0x3f, 0x3d, 0xd8, 0xcb,
    0x60, 0xbd, 0xcc, 0xa0, 0x82, 0xbc, 0xd4, 0x41, 0xf9, 0x3c, 0xa8, 0x8c,
    0x1d, 0xbc, 0x52, 0x17, 0x69, 0x3d, 0x28, 0xe4, 0x52, 0xbc, 0xdc, 0xb9,
    0xdd, 0x3c, 0x7f, 0x0f, 0xc4, 0x3d, 0x63, 0x4f, 0xaf, 0x3d, 0x01, 0x0c,
    0x2f, 0xbd, 0xc0, 0xc4, 0x62, 0x3b, 0x04, 0x79, 0x1c, 0xbd, 0x00, 0x50,
    0x70, 0x3c, 0xb5, 0xe9, 0xa3, 0xbd, 0x21, 0x3d, 0x87, 0x3d, 0xe8, 0x91,
    0x6b, 0x3c, 0xb8, 0xb8, 0x62, 0xbd, 0xe2, 0x6d, 0xbb, 0xbd, 0x81, 0x84,
    0x95, 0xbd, 0x9e, 0xe3, 0x07, 0x3d, 0xfa, 0x6d, 0x07, 0xbd, 0xc8, 0x37,
    0x61, 0x3c, 0xaf, 0xb3, 0x0b, 0xbd, 0x62, 0xbd, 0x0a, 0x3d, 0xc4, 0x07,
    0x9d, 0xbc, 0x48, 0x9d, 0xcb, 0x3c, 0x44, 0x5b, 0xbc, 0xbc, 0x82, 0xb6,
    0xbc, 0xbd, 0x68, 0xb4, 0x46, 0x3c, 0x18, 0x57, 0x91, 0xbd, 0xe8, 0xea,
    0x52, 0x3c, 0xa4, 0x05, 0xc3, 0x3c, 0xbc, 0x10, 0x1a, 0xbd, 0xf0, 0x99,
    0x39, 0x3c, 0x4e, 0x63, 0x03, 0xbd, 0xa0, 0x8b, 0x67, 0xbd, 0x1c, 0x65,
    0x26, 0xbd, 0x1f, 0x43, 0x97, 0xbd, 0xd6, 0x12, 0x26, 0x3d, 0x1e, 0x88,
    0x50, 0x3d, 0x77, 0x90, 0x8e, 0x3d, 0xc0, 0x5d, 0xc8, 0x3c, 0x1c, 0x8f,
    0x94, 0xbc, 0x8d, 0x5e, 0xa8, 0x3d, 0x17, 0xb6, 0x97, 0x3d, 0x5c, 0x9c,
    0xa6, 0xbc, 0x68, 0x98, 0x91, 0xbc, 0x88, 0x23, 0x1d, 0x3c, 0x6a, 0x7a,
    0x2f, 0xbd, 0xc0, 0x90, 0x84, 0xba, 0x86, 0x79, 0x62, 0xbd, 0x83, 0x1d,
    0x94, 0xbd, 0x36, 0xc5, 0x55, 0x3d, 0x91, 0x82, 0xa6, 0x3d, 0xb0, 0xb1,
    0x40, 0xbc, 0x94, 0x26, 0xee, 0xbc, 0xc8, 0x9e, 0x44, 0xbc, 0xf2, 0x8e,
    0x7d, 0xbd, 0xf7, 0xd7, 0xbb, 0xbd, 0xa4, 0xa4, 0xff, 0x3c, 0x76, 0x84,
    0x57, 0xbd, 0x35, 0x9f, 0x8e, 0xbd, 0x56, 0xe0, 0x5f, 0x3d, 0x1b, 0xf9,
    0xa2, 0x3d, 0xfe, 0xcd, 0x5f, 0x3d, 0x40, 0x0d, 0xa1, 0xbb, 0x0f, 0xa1,
    0xbc, 0xbd, 0x00, 0xed, 0xa1, 0xb9, 0x60, 0x89, 0x0e, 0xbc, 0xec, 0x26,
    0x05, 0xbd, 0x9d, 0xcd, 0x59, 0xbd, 0xc1, 0x14, 0xc0, 0x3d, 0x66, 0x08,
    0x7d, 0xbd, 0x30, 0x1d, 0xca, 0xbb, 0x3c, 0xe7, 0xf4, 0x3c, 0x7b, 0xcb,
    0xae, 0x3d, 0xa0, 0x58, 0x23, 0x3c, 0x3e, 0x67, 0x96, 0xbd, 0x12, 0xad,
    0x09, 0x3d, 0x20, 0xe1, 0x0e, 0x3b, 0xc8, 0x85, 0xc2, 0xbd, 0xc8, 0x5a,
    0x5a, 0x3c, 0xe2, 0x36, 0x38, 0x3d, 0x70, 0x69, 0x66, 0xbc, 0x8c, 0x2b,
    0xa3, 0xbd, 0x2d, 0x56, 0x1c, 0xbd, 0xef, 0x15, 0xb1, 0xbd, 0x3d, 0x60,
    0x27, 0xbd, 0xc2, 0xc6, 0x3d, 0x3d, 0xd5, 0x8f, 0x9f, 0x3d, 0xd4, 0x8e,
    0x8b, 0xbd, 0x80, 0xa7, 0xc2, 0xbd, 0x78, 0x1e, 0x01, 0x3c, 0x62, 0xb5,
    0x16, 0x3d, 0x48, 0x5c, 0x7e, 0xbc, 0x14, 0xc4, 0xfc, 0x3c, 0xa8, 0x29,
    0x89, 0xbd, 0x3b, 0x73, 0xb6, 0xbd, 0x28, 0x52, 0x3e, 0xbc, 0x91, 0x28,
    0x9d, 0x3d, 0xbc, 0x9a, 0xeb, 0x3c, 0x70, 0x70, 0x90, 0xbd, 0x56, 0x1f,
    0x99, 0xbd, 0xc5, 0x69, 0x80, 0xbd, 0x10, 0x2f, 0xb5, 0xbb, 0x7e, 0xbf,
    0x0e, 0x3d, 0x40, 0x79, 0x47, 0xbb, 0xbc, 0xfb, 0x86, 0x3c, 0x25, 0xf9,
    0xba, 0xbd, 0x61, 0xea, 0x9c, 0x3d, 0x80, 0x7c, 0xe7, 0x3c, 0xa4, 0x1b,
    0xcc, 0x3c, 0xe6, 0x44, 0xc0, 0xbd, 0xec, 0x28, 0x2a, 0xbd, 0x3d, 0xe1,
    0xb0, 0x3d, 0x4a, 0x08, 0x74, 0x3d, 0xb1, 0x1b, 0xa4, 0x3d, 0x86, 0xbe,
    0x39, 0x3d, 0x63, 0x5a, 0x82, 0x3d, 0x5e, 0x14, 0x2d, 0x3d, 0xd2, 0x64,
    0x07, 0xbd, 0x7a, 0x85, 0xa9, 0xbd, 0xf2, 0x09, 0x79, 0x3d, 0x2d, 0x07,
    0xa4, 0x3d, 0xcc, 0xa7, 0x08, 0xbd, 0xd4, 0xce, 0xc5, 0x3c, 0x4d, 0x00,
    0x82, 0xbd, 0xea, 0x90, 0x3d, 0x3d, 0x0c, 0x64, 0x18, 0xbd, 0x9d, 0x73,
    0xbf, 0x3d, 0x45, 0xa0, 0x63, 0xbd, 0x10, 0xa2, 0x9a, 0x3c, 0xd0, 0x7d,
    0xb3, 0x3b, 0xf7, 0xfa, 0xc2, 0xbd, 0x90, 0x2c, 0xae, 0x3c, 0x40, 0xfb,
    0x70, 0xbd, 0xf7, 0xc3, 0x96, 0xbd, 0x77, 0x91, 0x9b, 0x3d, 0xe8, 0x66,
    0x32, 0xbc, 0x36, 0x0c, 0x26, 0x3d, 0xed, 0xe0, 0x93, 0x3d, 0x40, 0x60,
    0xd4, 0x3c, 0xe0, 0x99, 0xaf, 0xbb, 0xfc, 0x98, 0xf5, 0x3c, 0x98, 0x61,
    0xdc, 0xbc, 0xa0, 0x4f, 0x50, 0xbb, 0x30, 0xc2, 0xc6, 0x3b, 0x80, 0x28,
    0xae, 0x3b, 0x95, 0x9e, 0x9b, 0x3d, 0xec, 0xd8, 0xf7, 0x3c, 0x7c, 0x1f,
    0x65, 0xbd, 0x61, 0xa8, 0xa1, 0xbd, 0x3d, 0xa9, 0x51, 0xbd, 0xa1, 0x7e,
    0xba, 0xbd, 0xb4, 0x56, 0xec, 0x3c, 0xa8, 0xfb, 0xa6, 0xbd, 0xa7, 0x77,
    0xa9, 0x3d, 0x9d, 0x2e, 0x80, 0x3d, 0x69, 0x1a, 0x8e, 0xbd, 0x18, 0x30,
    0xbd, 0xbd, 0xa8, 0xa1, 0xaa, 0x3c, 0x95, 0x22, 0x6d, 0xbd, 0x98, 0x2b,
    0x50, 0xbc, 0x94, 0xc5, 0xb9, 0x3c, 0x37, 0x4f, 0x49, 0xbd, 0x40, 0x18,
    0x21, 0x3b, 0x4c, 0xfb, 0x8e, 0x3c, 0x69, 0x63, 0xb0, 0xbd, 0x17, 0x3d,
    0xb3, 0x3d, 0xb9, 0x4b, 0x12, 0xbd, 0x30, 0x68, 0xe3, 0xbb, 0x38, 0x04,
    0xad, 0x3c, 0x00, 0x56, 0x21, 0xbd, 0x07, 0x73, 0x82, 0x3d, 0x79, 0x95,
    0xa9, 0x3d, 0x46, 0x59, 0x01, 0xbd, 0xe0, 0x4c, 0xf5, 0xbb, 0x62, 0xfb,
    0x78, 0xbd, 0x77, 0x72, 0x89, 0x3d, 0x83, 0x42, 0xab, 0x3d, 0x4a, 0x25,
    0x23, 0x3d, 0x24, 0xdf, 0xc6, 0x3c, 0x83, 0x76, 0xb6, 0x3d, 0x1c, 0xce,
    0xd4, 0xbc, 0x36, 0xde, 0x43, 0x3d, 0xdc, 0xf5, 0x24, 0xbd, 0xb2, 0x80,
    0x65, 0x3d, 0x25, 0x2b, 0xa7, 0xbd, 0x9e, 0xdd, 0x1e, 0x3d, 0x76, 0x9c,
    0x61, 0xbd, 0xaa, 0x43, 0xba, 0xbd, 0xd2, 0xba, 0x3f, 0xbd, 0x5e, 0x76,
    0x6f, 0x3d, 0xb0, 0x38, 0xdb, 0x3b, 0xbf, 0xb5, 0xac, 0x3d, 0xda, 0x7c,
    0x5c, 0x3d, 0xcb, 0xc1, 0xa0, 0x3d, 0xa7, 0x79, 0x97, 0xbd, 0xc9, 0xb2,
    0x53, 0xbd, 0x01, 0x30, 0xbe, 0x3d, 0xab, 0xc5, 0x73, 0xbd, 0x76, 0x97,
    0x7a, 0xbd, 0xd6, 0xa0, 0x6a, 0xbd, 0x48, 0xc3, 0xe4, 0xbc, 0xc8, 0x81,
    0x19, 0x3c, 0xb7, 0xa1, 0xa8, 0xbd, 0x60, 0x1d, 0x69, 0xbb, 0xb2, 0xa1,
    0x7e, 0x3d, 0x51, 0x5e, 0x22, 0xbd, 0xe0, 0x0c, 0xbe, 0xbb, 0xf0, 0xa5,
    0x2f, 0xbd, 0x3c, 0xa6, 0x27, 0xbd, 0x46, 0x74, 0x85, 0xbd, 0x36, 0x09,
    0x4f, 0xbd, 0x88, 0xd5, 0x1f, 0xbd, 0xa8, 0xd3, 0x9f, 0x3c, 0x47, 0x1c,
    0xb2, 0x3d, 0x17, 0xb8, 0x88, 0x3d, 0xfa, 0x04, 0xa4, 0xbd, 0xb6, 0x99,
    0x5f, 0x3d, 0x8d, 0xaf, 0xaa, 0x3d, 0x89, 0x80, 0xa8, 0xbd, 0x90, 0x8c,
    0x69, 0xbc, 0x2c, 0x56, 0xc1, 0xbd, 0x7a, 0xaa, 0x4e, 0x3d, 0x60, 0x04,
    0x03, 0x3c, 0x50, 0x9f, 0xcb, 0xbc, 0x73, 0xd4, 0x8c, 0x3d, 0x7a, 0x5d,
    0x67, 0x3d, 0x1b, 0xf0, 0x93, 0x3d, 0xe6, 0x20, 0x14, 0xbd, 0x69, 0x69,
    0x86, 0x3d, 0x97, 0xaa, 0x85, 0x3d, 0x10, 0xf8, 0x57, 0xbc, 0xd0, 0x24,
    0xdd, 0xbb, 0xd2, 0x1b, 0x86, 0xbd, 0x8c, 0xc5, 0xf7, 0xbc, 0x90, 0x77,
    0xa0, 0xbd, 0x00, 0xbc, 0xf7, 0x38, 0xf8, 0x51, 0x54, 0xbc, 0x3b, 0xad,
    0x8a, 0x3d, 0xcb, 0x4b, 0x94, 0xbd, 0x28, 0x9d, 0xc7, 0xbc, 0x48, 0x9f,
    0x25, 0x3c, 0xbf, 0x05, 0xa7, 0x3d, 0x80, 0x49, 0x9b, 0x3c, 0x72, 0x4c,
    0x23, 0x3d, 0x56, 0xce, 0x03, 0x3d, 0x08, 0x27, 0x95, 0xbd, 0x08, 0x90,
    0x12, 0x3c, 0xf2, 0x8e, 0x22, 0x3d, 0xa0, 0x54, 0x03, 0xbc, 0x9c, 0xda,
    0xc8, 0xbc, 0x9c, 0xca, 0xd5, 0xbc, 0x9e, 0xd7, 0x3b, 0x3d, 0xaa, 0xc1,
    0x43, 0x3d, 0x6f, 0x5b, 0x93, 0xbd, 0xd8, 0xdf, 0x85, 0xbc, 0xd0, 0xae,
    0xf6, 0xbc, 0x66, 0xb7, 0x6e, 0x3d, 0x72, 0xeb, 0x22, 0xbd, 0x72, 0xd8,
    0x74, 0x3d, 0xb6, 0xca, 0x7f, 0x3d, 0x61, 0x59, 0x87, 0x3d, 0xa0, 0xa5,
    0xe0, 0xbc, 0x28, 0x64, 0xe7, 0xbc, 0xc8, 0x90, 0x00, 0xbd, 0x38, 0x01,
    0xc0, 0x3c, 0x9b, 0x44, 0x9e, 0xbd, 0xca, 0xfe, 0x51, 0xbd, 0x04, 0x96,
    0xe9, 0xbc, 0x88, 0x31, 0x06, 0xbd, 0x7a, 0x20, 0x94, 0xbd, 0x70, 0xc5,
    0x4c, 0xbc, 0x32, 0x17, 0x3d, 0x3d, 0x5e, 0x8f, 0xb7, 0xbd, 0xd0, 0x6f,
    0x4b, 0xbc, 0x20, 0x7c, 0x96, 0xbd, 0x60, 0x2b, 0x42, 0x3c, 0x76, 0x01,
    0x67, 0x3d, 0x7d, 0xfc, 0xb0, 0x3d, 0x0c, 0x6a, 0xb0, 0xbc, 0x39, 0x7a,
    0x4f, 0xbd, 0xce, 0x75, 0xa1, 0xbd, 0x32, 0xdc, 0x1a, 0x3d, 0xf7, 0x45,
    0xc3, 0xbd, 0xc0, 0x5a, 0x91, 0xba, 0xaa, 0xed, 0x01, 0xbd, 0x40, 0xca,
    0x50, 0x3b, 0x21, 0x61, 0xba, 0x3d, 0x1a, 0x23, 0x1e, 0xbd, 0x70, 0x78,
    0x55, 0x3c, 0x00, 0x3d, 0xa2, 0xba, 0x7e, 0x8e, 0x23, 0x3d, 0x84, 0x4f,
    0xb6, 0xbc, 0x47, 0x94, 0x9a, 0x3d, 0x4d, 0xfa, 0x53, 0xbd, 0x45, 0x0e,
    0xb7, 0xbd, 0xf9, 0x99, 0xaf, 0x3d, 0x52, 0x37, 0x8c, 0xbd, 0x6e, 0x79,
    0x50, 0x3d, 0x51, 0x49, 0x11, 0xbd, 0x28, 0xbd, 0xc1, 0xbd, 0x13, 0xe8,
    0x1e, 0xbd, 0x8a, 0x96, 0xa6, 0xbd, 0x89, 0xfe, 0x98, 0x3d, 0x15, 0x33,
    0xa5, 0x3d, 0xce, 0x36, 0x1b, 0x3d, 0x20, 0x87, 0x84, 0x3b, 0xbb, 0x96,
    0x83, 0x3d, 0xf4, 0x89, 0xcb, 0x3c, 0xda, 0x1d, 0x08, 0x3d, 0x29, 0xca,
    0xa9, 0xbd, 0x56, 0x37, 0x43, 0x3d, 0x05, 0xa0, 0x14, 0xbd, 0xad, 0x4b,
    0xb7, 0x3d, 0x80, 0x00, 0xfc, 0x3b, 0x3b, 0x3c, 0x95, 0x3d, 0x32, 0x56,
    0x7a, 0x3d, 0x6e, 0x52, 0x23, 0x3d, 0x38, 0x11, 0x97, 0xbc, 0x20, 0x24,
    0x53, 0xbb, 0xd9, 0x70, 0x3b, 0xbd, 0x15, 0x70, 0x8c, 0x3d, 0x29, 0x4b,
    0x99, 0x3d, 0x46, 0x90, 0x7f, 0x3d, 0x69, 0x64, 0x82, 0x3d, 0x9f, 0x29,
    0x90, 0x3d, 0x20, 0xfc, 0x78, 0xbb, 0x1a, 0xd0, 0x88, 0xbd, 0x96, 0x56,
    0x4e, 0xbd, 0xc0, 0x70, 0xa6, 0x3c, 0xc2, 0xee, 0x61, 0xbd, 0xc0, 0x64,
    0x25, 0xbd, 0x2e, 0xd1, 0x3d, 0x3d, 0x10, 0x7f, 0xa0, 0xbd, 0xfa, 0x26,
    0x26, 0x3d, 0xb5, 0x4d, 0xc3, 0x3d, 0x56, 0xc8, 0x66, 0x3d, 0x50, 0x25,
    0xb2, 0x3b, 0x04, 0x1b, 0xff, 0x3c, 0x40, 0xbe, 0xda, 0xbb, 0xba, 0x7a,
    0x0b, 0x3d, 0xf4, 0x93, 0x8e, 0x3c, 0xf8, 0x85, 0xa6, 0x3c, 0x42, 0x8c,
    0x51, 0xbd, 0x42, 0xa4, 0x03, 0x3d, 0xdb, 0xad, 0x86, 0x3d, 0xc0, 0xdc,
    0x95, 0x3b, 0x50, 0x4b, 0xb1, 0xbb, 0x64, 0x54, 0x8c, 0xbc, 0x54, 0x31,
    0xd2, 0xbc, 0x78, 0x8f, 0xa8, 0x3c, 0x50, 0xec, 0x88, 0x3b, 0x66, 0x4c,
    0x7b, 0xbd, 0xc2, 0xde, 0x7a, 0x3d, 0x80, 0x6f, 0x6e, 0xbc, 0xb2, 0xcb,
    0xb7, 0xbd, 0xbc, 0x30, 0xab, 0xbc, 0xb0, 0x59, 0xc9, 0xbc, 0xfa, 0xbc,
    0x7a, 0x3d, 0x80, 0x70, 0x85, 0xba, 0x14, 0x95, 0xc2, 0xbc, 0x62, 0x17,
    0x0b, 0x3d, 0x32, 0x82, 0x65, 0x3d, 0x10, 0x85, 0xc2, 0xbc, 0x60, 0x1d,
    0x27, 0xbd, 0x2e, 0x49, 0x2d, 0xbd, 0xe0, 0xf2, 0x54, 0xbd, 0x68, 0xd6,
    0x60, 0xbd, 0x4d, 0x01, 0xad, 0x3d, 0xa0, 0x69, 0xa0, 0xbc, 0x24, 0xcf,
    0xf7, 0xbc, 0x58, 0x40, 0x71, 0x3c, 0x86, 0x9f, 0x61, 0x3d, 0x1d, 0x85,
    0x86, 0x3d, 0x82, 0xfd, 0xa8, 0xbd, 0x60, 0x48, 0xc9, 0xbc, 0x50, 0x48,
    0x8d, 0xbc, 0xf8, 0x79, 0x59, 0xbc, 0xe7, 0x32, 0x3d, 0xbd, 0x10, 0xf3,
    0xd2, 0x3b, 0x60, 0xd9, 0x29, 0x3b, 0x64, 0x0c, 0xfa, 0x3c, 0x5a, 0x37,
    0x47, 0x3d, 0x1f, 0xcf, 0xae, 0x3d, 0x91, 0x94, 0x8b, 0xbd, 0x40, 0x60,
    0x5f, 0x3c, 0xc4, 0x1c, 0x9c, 0xbd, 0x63, 0xd4, 0xae, 0x3d, 0xb0, 0x2d,
    0x05, 0x3c, 0x13, 0x32, 0x8f, 0x3d, 0xa2, 0xeb, 0x56, 0x3d, 0x91, 0x4e,
    0x92, 0x3d, 0x8e, 0xf2, 0x29, 0x3d, 0x28, 0xd9, 0x29, 0xbd, 0x00, 0xda,
    0x73, 0x3a, 0x9d, 0xdd, 0xa5, 0xbd, 0x98, 0x9b, 0x0b, 0x3c, 0x42, 0xab,
    0x0e, 0x3d, 0xf4, 0xa9, 0x93, 0xbc, 0xa8, 0xa5, 0xd7, 0x3c, 0xc0, 0xea,
    0xc2, 0xba, 0x5f, 0x10, 0x50, 0xbd, 0xb4, 0xfc, 0xae, 0xbd, 0x84, 0xf1,
    0x95, 0x3c, 0x1c, 0x58, 0x7f, 0xbd, 0xc3, 0xb1, 0xc0, 0xbd, 0x27, 0x98,
    0x98, 0x3d, 0x23, 0xca, 0xbb, 0xbd, 0x54, 0x38, 0x89, 0xbd, 0xb3, 0xd6,
    0x86, 0xbd, 0x90, 0x76, 0xd6, 0x3b, 0x46, 0xd1, 0x49, 0x3d, 0x8a, 0x09,
    0x0c, 0x3d, 0x04, 0xa0, 0xc4, 0x3c, 0x6f, 0x86, 0x94, 0x3d, 0xe0, 0xbd,
    0x57, 0xbb, 0x5c, 0xd3, 0xd2, 0x3c, 0xd2, 0xff, 0x23, 0x3d, 0x88, 0xfd,
    0xb1, 0x3c, 0x7a, 0x16, 0x8f, 0xbd, 0x4a, 0x88, 0x38, 0xbd, 0x22, 0xd5,
    0x7a, 0x3d, 0x7a, 0x74, 0x55, 0x3d, 0x01, 0x2c, 0x3e, 0xbd, 0x03, 0x51,
    0xc1, 0x3d, 0xee, 0x3e, 0x21, 0x3d, 0x34, 0x86, 0x97, 0xbd, 0x48, 0xf7,
    0x12, 0xbd, 0xf5, 0xe4, 0x81, 0xbd, 0xa8, 0x49, 0xe2, 0x3c, 0x26, 0xa7,
    0x37, 0x3d, 0xf8, 0x6d, 0xa4, 0x3c, 0xbd, 0xa5, 0xa0, 0x3d, 0xe9, 0x95,
    0x9f, 0xbd, 0x66, 0x1d, 0x15, 0x3d, 0xcb, 0x8c, 0x80, 0xbd, 0x90, 0x52,
    0xd4, 0x3b, 0xa1, 0x16, 0x95, 0x3d, 0xdf, 0x31, 0x28, 0xbd, 0x93, 0x71,
    0xba, 0xbd, 0x5e, 0xc9, 0x70, 0x3d, 0xae, 0x10, 0x1c, 0x3d, 0xef, 0xd1,
    0x88, 0xbd, 0x0d, 0xf7, 0xc0, 0x3d, 0x0d, 0x1b, 0x52, 0xbd, 0xa7, 0xd2,
    0x93, 0x3d, 0xbd, 0x01, 0xa1, 0x3d, 0x01, 0x50, 0x92, 0x3d, 0xfa, 0x94,
    0x58, 0xbd, 0xd6, 0xd1, 0x74, 0x3d, 0xc6, 0xcd, 0x6d, 0x3d, 0x8c, 0xd6,
    0xd0, 0xbc, 0x63, 0xab, 0xaf, 0x3d, 0xc0, 0x14, 0x15, 0xbb, 0x3d, 0x80,
    0xbf, 0xbd, 0x83, 0x32, 0x93, 0x3d, 0x91, 0xa3, 0x88, 0xbd, 0x38, 0x04,
    0xd1, 0xbc, 0x67, 0xff, 0x26, 0xbd, 0xdc, 0x6a, 0x8c, 0xbc, 0xc8, 0x1d,
    0x58, 0xbc, 0x36, 0xc4, 0x76, 0x3d, 0x16, 0xe7, 0x9e, 0xbd, 0x70, 0xae,
    0xca, 0x3b, 0x20, 0x6b, 0x5c, 0x3c, 0xb0, 0xff, 0x07, 0xbd, 0x5e, 0xe8,
    0x3d, 0x3d, 0x8e, 0xc9, 0x88, 0xbd, 0xea, 0x0a, 0x78, 0xbd, 0xa1, 0x77,
    0x14, 0xbd, 0xfe, 0xbb, 0x77, 0x3d, 0xbc, 0x5b, 0xea, 0x3c, 0xb5, 0xf9,
    0x4c, 0xbd, 0xcc, 0x29, 0x9f, 0x3c, 0x40, 0x98, 0xa8, 0x3a, 0x06, 0xe6,
    0x8f, 0xbd, 0xa0, 0xe4, 0xc5, 0x3c, 0x16, 0xe4, 0x38, 0xbd, 0xea, 0x6b,
    0x20, 0x3d, 0x20, 0xc8, 0xba, 0xbd, 0x50, 0x56, 0x84, 0x3b, 0xf7, 0xb8,
    0x9b, 0x3d, 0x68, 0x88, 0x17, 0xbd, 0x08, 0xc6, 0x71, 0x3c, 0xde, 0x4e,
    0xb7, 0xbd, 0x47, 0x04, 0xbe, 0x3d, 0xf1, 0xad, 0x8c, 0x3d, 0x92, 0x50,
    0xbd, 0xbd, 0x04, 0x33, 0x30, 0xbd, 0xeb, 0xcf, 0x2d, 0xbd, 0xb1, 0x7e,
    0x8d, 0xbd, 0xec, 0xe5, 0xf8, 0xbc, 0x5b, 0x04, 0x67, 0xbd, 0xfe, 0xf3,
    0x2b, 0xbd, 0xb0, 0xc0, 0xc5, 0x3c, 0x6c, 0x78, 0xbd, 0xbc, 0x36, 0xb4,
    0x82, 0xbd, 0xec, 0xc5, 0xcc, 0xbc, 0x60, 0xee, 0xa2, 0xbd, 0xa0, 0xb2,
    0xad, 0xbb, 0x48, 0x4b, 0xbd, 0xbc, 0xdd, 0xca, 0x96, 0xbd, 0xed, 0x01,
    0x9e, 0x3d, 0x7e, 0x9d, 0x0e, 0x3d, 0x5b, 0xc1, 0x2c, 0xbd, 0x24, 0x93,
    0x91, 0xbc, 0x53, 0x6a, 0x21, 0xbd, 0x7c, 0x46, 0x83, 0x3c, 0xcb, 0x05,
    0x8f, 0x3d, 0x10, 0x59, 0xd2, 0xbc, 0xb4, 0xc5, 0x92, 0x3c, 0x98, 0x90,
    0x32, 0xbd, 0xb0, 0x18, 0xbf, 0x3c, 0xde, 0x3b, 0x52, 0x3d, 0xc6, 0xac,
    0x6b, 0x3d, 0xa9, 0x10, 0xb8, 0x3d, 0x14, 0x4f, 0xb0, 0x3c, 0x76, 0x87,
    0x53, 0x3d, 0xea, 0x98, 0x67, 0x3d, 0xa0, 0x4b, 0x9e, 0x3b, 0x80, 0xe7,
    0x60, 0x3b, 0x24, 0xd2, 0x97, 0xbd, 0xa0, 0xb8, 0x9c, 0x3c, 0x10, 0x11,
    0x14, 0xbc, 0x8b, 0x0b, 0x30, 0xbd, 0x02, 0x8e, 0x07, 0x3d, 0x2a, 0xb6,
    0xae, 0xbd, 0x60, 0x30, 0x52, 0xbc, 0xd0, 0xd2, 0x55, 0x3c, 0xe0, 0xf6,
    0x18, 0x3c, 0x6d, 0x98, 0xa2, 0xbd, 0x37, 0xd2, 0x9f, 0x3d, 0xf2, 0x21,
    0x11, 0x3d, 0x20, 0x96, 0xf1, 0x3b, 0x7e, 0xba, 0x18, 0x3d, 0x8b, 0x11,
    0xa5, 0x3d, 0xc8, 0xc6, 0x88, 0xbc, 0x88, 0xc2, 0x10, 0x3c, 0x9d, 0x87,
    0xbf, 0x3d, 0x1a, 0xdf, 0x20, 0xbd, 0xd4, 0x71, 0xe8, 0x3c, 0x1a, 0x52,
    0x92, 0xbd, 0xdc, 0x05, 0xa7, 0x3c, 0x23, 0xeb, 0xa7, 0xbd, 0xae, 0x0e,
    0x32, 0x3d, 0x90, 0xa1, 0xd6, 0xbb, 0xd1, 0x19, 0xaa, 0xbd, 0xc0, 0xda,
    0xbf, 0x3a, 0x8c, 0x62, 0xfe, 0xbc, 0x0e, 0xb2, 0x7c, 0x3d, 0x80, 0x5a,
    0xf8, 0xbb, 0xd5, 0xa8, 0x50, 0xbd, 0xbf, 0x09, 0xb4, 0x3d, 0x60, 0xfa,
    0xe3, 0x3b, 0xc9, 0x37, 0x9a, 0x3d, 0x2b, 0x51, 0xc1, 0xbd, 0x56, 0x39,
    0x0d, 0x3d, 0x72, 0x0d, 0x10, 0x3d, 0x96, 0x01, 0x54, 0x3d, 0xb0, 0x07,
    0x6c, 0xbc, 0x0e, 0x69, 0x17, 0x3d, 0xda, 0xd7, 0x1b, 0x3d, 0xa7, 0xd0,
    0x9d, 0x3d, 0x44, 0x47, 0x8e, 0x3c, 0x44, 0xa9, 0x88, 0xbc, 0x08, 0x87,
    0x01, 0x3c, 0x1c, 0x3b, 0x92, 0xbd, 0xe4, 0xb9, 0xc9, 0x3c, 0x38, 0xac,
    0x7f, 0xbc, 0x70, 0x02, 0x38, 0x3c, 0x92, 0xdc, 0xc4, 0xbd, 0xf0, 0x5a,
    0x14, 0xbd, 0x20, 0x25, 0x66, 0xbd, 0xca, 0xca, 0xa7, 0xbd, 0x78, 0x15,
    0xa4, 0xbd, 0xd5, 0xa5, 0x34, 0xbd, 0x18, 0xbc, 0xf9, 0xbc, 0x18, 0xdd,
    0x21, 0x3c, 0x48, 0xaa, 0x5d, 0xbc, 0x88, 0xcc, 0xe8, 0x3c, 0x25, 0xb9,
    0xa5, 0x3d, 0xa7, 0x32, 0x84, 0x3d, 0x60, 0xdf, 0x39, 0x3c, 0x31, 0x92,
    0x92, 0xbd, 0xf8, 0xe3, 0x2f, 0x3c, 0xb8, 0x96, 0x60, 0xbc, 0x40, 0x36,
    0x0a, 0x3c, 0xe7, 0xdd, 0xb6, 0x3d, 0x73, 0x3f, 0x92, 0x3d, 0x29, 0x94,
    0xab, 0xbd, 0x40, 0x64, 0xe1, 0x3a, 0x22, 0xfb, 0x6f, 0x3d, 0xe2, 0x1b,
    0x6d, 0x3d, 0xa6, 0x5f, 0x40, 0xbd, 0xac, 0xf5, 0xd7, 0x3c, 0x00, 0x48,
    0x52, 0xbc, 0xd5, 0x27, 0xa4, 0xbd, 0x65, 0x89, 0x98, 0x3d, 0xfb, 0x3a,
    0x90, 0xbd, 0x2d, 0x90, 0x6b, 0xbd, 0x5c, 0x69, 0xd8, 0x3c, 0xa1, 0xb6,
    0xa7, 0x3d, 0x9c, 0xd2, 0x00, 0xbd, 0xa8, 0x10, 0x55, 0x3c, 0x8e, 0x3a,
    0x8b, 0xbd, 0xc0, 0xf8, 0xba, 0xba, 0x14, 0xd5, 0x93, 0xbd, 0xa8, 0x3d,
    0xed, 0xbc, 0x9a, 0x18, 0x5b, 0x3d, 0x16, 0x99, 0x3b, 0x3d, 0x84, 0xe0,
    0x94, 0xbd, 0x8f, 0xef, 0xab, 0x3d, 0x3b, 0x3d, 0x9c, 0xbd, 0x30, 0x25,
    0xb5, 0xbc, 0xb9, 0xe1, 0x58, 0xbd, 0xbe, 0x4c, 0x02, 0x3d, 0xdf, 0xb6,
    0x86, 0x3d, 0x8e, 0xa5, 0x0a, 0x3d, 0x79, 0x79, 0x64, 0xbd, 0x8e, 0x4f,
    0x10, 0x3d, 0x93, 0x66, 0xa9, 0x3d, 0xa0, 0xad, 0x81, 0xbb, 0xd5, 0x01,
    0x50, 0xbd, 0x40, 0xc3, 0x82, 0xba, 0xc2, 0xfc, 0x89, 0xbd, 0x68, 0xf7,
    0x07, 0x3c, 0x17, 0xde, 0x95, 0x3d, 0x12, 0x13, 0x76, 0x3d, 0x9d, 0xc7,
    0x90, 0x3d, 0x54, 0x27, 0xeb, 0x3c, 0xe6, 0x14, 0x8f, 0xbd, 0xfa, 0x55,
    0x54, 0x3d, 0x6e, 0xf0, 0x94, 0xbd, 0xa7, 0x05, 0xa7, 0x3d, 0x0c, 0xec,
    0xa7, 0x3c, 0xc0, 0xb8, 0xed, 0xbb, 0x00, 0x78, 0x1f, 0xbb, 0x38, 0x75,
    0xb8, 0x3c, 0xcf, 0xa8, 0x9a, 0x3d, 0x00, 0xbc, 0x50, 0x3b, 0xbd, 0x99,
    0x9a, 0x3d, 0x2c, 0x6f, 0xa2, 0xbc, 0xeb, 0xdf, 0x68, 0xbd, 0x69, 0xfd,
    0xbd, 0x3d, 0xee, 0x6c, 0x15, 0x3d, 0x24, 0xe3, 0x6d, 0xbd, 0x47, 0xf9,
    0xbf, 0x3d, 0xe0, 0x4b, 0xa8, 0xbd, 0x16, 0x3d, 0x34, 0x3d, 0xa5, 0x39,
    0x21, 0xbd, 0x48, 0x76, 0x0a, 0x3c, 0x8e, 0xad, 0x0e, 0xbd, 0xcf, 0xd0,
    0xb7, 0x3d, 0xd2, 0x98, 0x8b, 0xbd, 0x4e, 0x29, 0x8a, 0xbd, 0x90, 0xaa,
    0x06, 0x3c, 0x45, 0x9e, 0xc0, 0xbd, 0x60, 0x64, 0x06, 0x3b, 0xde, 0x75,
    0x3d, 0x3d, 0xbf, 0x01, 0x8c, 0xbd, 0xef, 0x90, 0x9e, 0xbd, 0x3c, 0x5b,
    0xef, 0x3c, 0x02, 0x06, 0x29, 0x3d, 0xcb, 0xea, 0x57, 0xbd, 0xac, 0x45,
    0xc5, 0xbc, 0x40, 0x62, 0x9e, 0x3a, 0xd5, 0xd5, 0xa8, 0xbd, 0x80, 0x21,
    0xc3, 0x3c, 0x85, 0xa9, 0x58, 0xbd, 0x78, 0x4f, 0x10, 0x3c, 0x27, 0xd5,
    0xa9, 0x3d, 0x10, 0xc5, 0x17, 0x3c, 0xe9, 0x1c, 0xbf, 0x3d, 0x33, 0x96,
    0x90, 0x3d, 0x28, 0xfe, 0x23, 0xbd, 0xa5, 0xb2, 0x9a, 0x3d, 0x2e, 0x9e,
    0x5a, 0x3d, 0x41, 0x51, 0xa6, 0x3d, 0x16, 0xd3, 0x6b, 0xbd, 0xe3, 0x27,
    0x9d, 0x3d, 0xbf, 0x19, 0x8e, 0xbd, 0x0d, 0x8b, 0xbe, 0x3d, 0xb0, 0xb0,
    0x08, 0x3c, 0x4a, 0xec, 0x75, 0x3d, 0x9c, 0xa7, 0x6c, 0xbd, 0x34, 0xef,
    0xb9, 0x3c, 0x76, 0xe5, 0x29, 0x3d, 0xd7, 0x1c, 0x8f, 0x3d, 0x33, 0xc1,
    0x12, 0xbd, 0x83, 0x9b, 0x8a, 0x3d, 0x45, 0xf1, 0xb2, 0xbd, 0xb2, 0xab,
    0x63, 0x3d, 0x80, 0xa7, 0x80, 0xbc, 0x2c, 0x2f, 0xdf, 0x3c, 0xfd, 0x17,
    0x63, 0xbd, 0x3a, 0x92, 0x1f, 0x3d, 0x84, 0xe7, 0x90, 0xbc, 0x2f, 0xa2,
    0xaa, 0x3d, 0x00, 0x58, 0x4a, 0x38, 0xb0, 0x63, 0x74, 0xbc, 0xda, 0x08,
    0x91, 0xbd, 0x1f, 0x29, 0x25, 0xbd, 0xbc, 0xf3, 0xf2, 0x3c, 0xbb, 0xe1,
    0xa9, 0xbd, 0xb8, 0xe6, 0x79, 0xbd, 0xa8, 0x5f, 0x1f, 0xbc, 0x67, 0x16,
    0xa4, 0x3d, 0x82, 0xfc, 0x79, 0x3d, 0xda, 0xeb, 0x29, 0x3d, 0x54, 0x87,
    0x91, 0xbc, 0x33, 0x9d, 0x79, 0xbd, 0x2d, 0xfb, 0xac, 0xbd, 0x6e, 0xda,
    0x0c, 0xbd, 0x4e, 0xac, 0x6d, 0x3d, 0xa0, 0xf7, 0xd7, 0x3b, 0x46, 0x3f,
    0x27, 0x3d, 0x4d, 0x62, 0x8b, 0x3d, 0xa8, 0xf4, 0x93, 0xbc, 0x15, 0xd1,
    0x8d, 0x3d, 0xb6, 0x47, 0xb3, 0xbd, 0xd2, 0xd1, 0x0f, 0x3d, 0x53, 0xe1,
    0x0d, 0xbd, 0x80, 0xed, 0xa5, 0x3a, 0xd0, 0xad, 0x0b, 0x3c, 0x92, 0x41,
    0x20, 0x3d, 0x5e, 0xd8, 0x8d, 0xbd, 0xd8, 0x80, 0x85, 0xbc, 0xf7, 0xf8,
    0xba, 0x3d, 0x41, 0x0b, 0x20, 0xbd, 0x1f, 0x71, 0x24, 0xbd, 0x98, 0x38,
    0xda, 0x3c, 0x52, 0x75, 0x1f, 0x3d, 0x30, 0x38, 0xb3, 0x3b, 0x58, 0x20,
    0x04, 0xbd, 0x8f, 0x99, 0x46, 0xbd, 0x10, 0x3f, 0xb8, 0xbc, 0x11, 0xaa,
    0x92, 0x3d, 0x38, 0x88, 0xae, 0xbd, 0x20, 0x06, 0x95, 0xbc, 0x51, 0x54,
    0xa8, 0x3d, 0xdc, 0x0e, 0x9b, 0x3c, 0x43, 0xfd, 0x8c, 0x3d, 0xbb, 0xee,
    0xb5, 0x3d, 0xe6, 0x70, 0x6e, 0xbd, 0x66, 0x59, 0x45, 0xbd, 0x82, 0x8e,
    0x35, 0x3d, 0x9b, 0xc3, 0x38, 0xbd, 0xeb, 0x50, 0xa7, 0x3d, 0x9b, 0xe5,
    0xb4, 0x3d, 0x48, 0x32, 0x83, 0xbd, 0x2d, 0x4b, 0xb0, 0x3d, 0xe8, 0x0e,
    0x43, 0xbc, 0x26, 0x22, 0x6e, 0xbd, 0x80, 0xd2, 0x98, 0x3a, 0x00, 0xb0,
    0xdd, 0x38, 0x95, 0xa1, 0xc1, 0x3d, 0x7a, 0xdd, 0x38, 0xbd, 0xfa, 0xb5,
    0x70, 0x3d, 0x30, 0x0a, 0x88, 0xbd, 0xb0, 0x24, 0xa6, 0xbb, 0x60, 0x21,
    0x73, 0x3b, 0xc4, 0xc8, 0x8b, 0xbd, 0x02, 0x9a, 0x18, 0xbd, 0x92, 0x60,
    0x49, 0x3d, 0x08, 0x0e, 0xc1, 0xbc, 0x80, 0x8b, 0x29, 0x3c, 0x87, 0xf2,
    0x98, 0x3d, 0x26, 0x98, 0x2b, 0xbd, 0xa5, 0x3f, 0x88, 0x3d, 0x4a, 0x98,
    0x95, 0xbd, 0x98, 0x0e, 0xe0, 0x3c, 0xee, 0x8d, 0x14, 0x3d, 0xe5, 0x56,
    0x96, 0xbd, 0xda, 0xb3, 0x1a, 0x3d, 0x54, 0xfb, 0xdc, 0xbc, 0xd0, 0xb4,
    0x24, 0xbc, 0x99, 0x90, 0x1e, 0xbd, 0x05, 0x57, 0x8b, 0xbd, 0xe0, 0x22,
    0x70, 0x3c, 0x70, 0x31, 0x5b, 0xbd, 0x00, 0x40, 0xca, 0x38, 0x80, 0x44,
    0x7a, 0x3b, 0x31, 0xba, 0xbe, 0xbd, 0x05, 0x48, 0x50, 0xbd, 0x70, 0x35,
    0x39, 0xbd, 0xfe, 0xb7, 0x21, 0xbd, 0x9e, 0x69, 0x49, 0xbd, 0x30, 0x51,
    0xeb, 0xbc, 0x96, 0xf4, 0x24, 0x3d, 0xd5, 0xf5, 0x25, 0xbd, 0xa4, 0x28,
    0xb8, 0x3c, 0x2e, 0x89, 0x4a, 0x3d, 0x72, 0x42, 0x99, 0xbd, 0x60, 0xce,
    0x6d, 0xbb, 0x92, 0x1b, 0x79, 0x3d, 0x2a, 0x53, 0xc4, 0xbd, 0x79, 0x9f,
    0xa7, 0xbd, 0xe5, 0xb6, 0xa0, 0xbd, 0x48, 0xca, 0x66, 0x3c, 0xf9, 0x9f,
    0xb3, 0xbd, 0xaa, 0xea, 0x8e, 0xbd, 0x02, 0x49, 0x31, 0x3d, 0x5d, 0x99,
    0xb6, 0xbd, 0xec, 0x6e, 0x8e, 0xbd, 0x28, 0x26, 0xb1, 0xbc, 0x1e, 0xe9,
    0x63, 0x3d, 0xc3, 0x27, 0x83, 0x3d, 0xb2, 0xe2, 0x98, 0xbd, 0x76, 0x21,
    0x1c, 0x3d, 0x9b, 0xf4, 0x94, 0x3d, 0x40, 0x55, 0x5c, 0xbc, 0x28, 0x83,
    0x37, 0xbd, 0xf1, 0xd4, 0xa0, 0x3d, 0xba, 0x8c, 0x28, 0x3d, 0x36, 0x78,
    0x36, 0x3d, 0x75, 0xcb, 0xbd, 0x3d, 0x6b, 0xc6, 0xbe, 0x3d, 0x68, 0x67,
    0x82, 0xbd, 0x80, 0x93, 0xb4, 0xbc, 0x08, 0xed, 0x51, 0x3c, 0x17, 0xeb,
    0x2f, 0xbd, 0x22, 0x32, 0x0b, 0x3d, 0x57, 0xfc, 0x38, 0xbd, 0xfc, 0xac,
    0xbd, 0xbc, 0x6e, 0x2e, 0x99, 0xbd, 0xca, 0xbd, 0x0b, 0x3d, 0x50, 0x51,
    0x8c, 0x3b, 0x80, 0x36, 0xf0, 0xbc, 0x02, 0xf1, 0x70, 0x3d, 0x9a, 0x92,
    0x1a, 0xbd, 0xc8, 0x21, 0x57, 0xbc, 0x68, 0xec, 0xdd, 0x3c, 0x8c, 0x3a,
    0x3b, 0xbd, 0x64, 0xb0, 0xc3, 0xbc, 0xb9, 0x21, 0x92, 0x3d, 0x0d, 0x3e,
    0x82, 0x3d, 0xa0, 0x82, 0x6b, 0xbd, 0xc9, 0xc6, 0xb1, 0x3d, 0x8f, 0x86,
    0x91, 0xbd, 0x5c, 0xfe, 0xa0, 0xbc, 0x00, 0x0c, 0x41, 0xba, 0xc1, 0xdb,
    0x84, 0x3d, 0x7e, 0x56, 0x6a, 0x3d, 0xe0, 0x33, 0xa6, 0xbd, 0x08, 0x3f,
    0x5d, 0xbd, 0xf6, 0x59, 0x9d, 0xbd, 0x02, 0x10, 0xad, 0xbd, 0xe0, 0xd9,
    0xb9, 0xbb, 0xa0, 0x01, 0xda, 0x3c, 0x15, 0x89, 0x89, 0x3d, 0x70, 0xf8,
    0x80, 0xbb, 0x90, 0x16, 0xbd, 0x3c, 0x35, 0x49, 0x19, 0xbd, 0xb0, 0x6d,
    0x3c, 0xbc, 0x70, 0x8a, 0x9a, 0xbb, 0x7f, 0x1f, 0x85, 0xbd, 0x1a, 0x7f,
    0x48, 0x3d, 0x2e, 0x8e, 0x21, 0xbd, 0xa8, 0xe3, 0x2d, 0x3c, 0xae, 0x27,
    0x30, 0x3d, 0x7e, 0xfb, 0xc4, 0xbd, 0xd8, 0xda, 0x5f, 0x3c, 0xd0, 0xaa,
    0x26, 0xbc, 0x7c, 0xca, 0xd0, 0xbc, 0xc8, 0xef, 0x13, 0x3c, 0x8a, 0xe3,
    0x1d, 0x3d, 0x10, 0xc1, 0x24, 0x3c, 0xe7, 0x5a, 0x1b, 0xbd, 0x8d, 0x74,
    0x99, 0x3d, 0x4a, 0x78, 0x30, 0x3d, 0x3a, 0x9d, 0x1e, 0x3d, 0xe3, 0x19,
    0x98, 0x3d, 0x7b, 0x7a, 0x9f, 0x3d, 0x3c, 0xd4, 0xc1, 0xbc, 0x04, 0x00,
    0xc6, 0xbc, 0x5f, 0xe1, 0x0c, 0xbd, 0xa1, 0xa9, 0x82, 0x3d, 0xec, 0x78,
    0x2d, 0xbd, 0x5d, 0x49, 0x12, 0xbd, 0x2b, 0x58, 0x45, 0xbd, 0x52, 0xa0,
    0x9b, 0xbd, 0x3d, 0x05, 0xb7, 0x3d, 0x00, 0x3f, 0xea, 0xba, 0x90, 0x44,
    0x4d, 0x3c, 0xea, 0xbd, 0x17, 0xbd, 0x00, 0x0c, 0xbe, 0xb8, 0xe4, 0x19,
    0xd0, 0x3c, 0x20, 0x87, 0x44, 0x3c, 0x50, 0xf8, 0xdf, 0xbc, 0xc0, 0x80,
    0xc8, 0xbb, 0xa8, 0x66, 0xb8, 0xbc, 0x7a, 0x6a, 0x82, 0xbd, 0xb1, 0x25,
    0xc3, 0x3d, 0x57, 0xa2, 0x64, 0xbd, 0x69, 0x10, 0x67, 0xbd, 0x67, 0xde,
    0xb3, 0x3d, 0x9c, 0x73, 0x55, 0xbd, 0x5b, 0x91, 0x82, 0x3d, 0x4f, 0xd6,
    0xa1, 0x3d, 0xb0, 0xcd, 0xd1, 0x3b, 0x9b, 0xc7, 0x6e, 0xbd, 0xec, 0xf9,
    0xd3, 0xbc, 0xc8, 0xae, 0x00, 0x3c, 0x3d, 0x27, 0xc1, 0x3d, 0x98, 0x3a,
    0x60, 0xbd, 0x91, 0x6d, 0x92, 0xbd, 0xd5, 0x2d, 0x96, 0xbd, 0xee, 0xa6,
    0x5d, 0x3d, 0x80, 0x34, 0xaf, 0xba, 0xd8, 0x1f, 0xc2, 0xbd, 0x9d, 0x0a,
    0x86, 0xbd, 0xe0, 0x25, 0x42, 0x3b, 0x13, 0xa6, 0xb1, 0x3d, 0x58, 0xdf,
    0x5d, 0x3c, 0xf0, 0x64, 0xb9, 0xbc, 0x32, 0xdc, 0x7f, 0xbd, 0xe6, 0xde,
    0x96, 0xbd, 0x2b, 0x6f, 0xac, 0x3d, 0x1b, 0xc0, 0x87, 0x3d, 0x30, 0x2f,
    0xd3, 0x3c, 0x40, 0x4f, 0x7e, 0xbc, 0x60, 0x77, 0x0b, 0xbb, 0x86, 0x94,
    0x76, 0x3d, 0x97, 0x4f, 0x98, 0x3d, 0xc1, 0xd7, 0xb6, 0x3d, 0x06, 0x1f,
    0x74, 0x3d, 0x61, 0x6a, 0x81, 0x3d, 0xbb, 0x75, 0xc5, 0xbd, 0x0a, 0xe5,
    0x82, 0xbd, 0x4a, 0x60, 0x14, 0xbd, 0x0b, 0xde, 0x9e, 0xbd, 0x2b, 0x2c,
    0xc2, 0x3d, 0x98, 0xc2, 0x4e, 0xbc, 0xd3, 0xf4, 0xb3, 0x3d, 0x00, 0x8e,
    0x9d, 0x3b, 0xfd, 0xe3, 0x6b, 0xbd, 0x58, 0xe3, 0xaa, 0xbd, 0x56, 0x5b,
    0x39, 0x3d, 0xaa, 0xeb, 0x03, 0x3d, 0x08, 0x23, 0x26, 0xbc, 0x31, 0x39,
    0x2d, 0xbd, 0xc2, 0x07, 0x56, 0x3d, 0xb2, 0x69, 0x35, 0xbd, 0x1f, 0x9a,
    0xb5, 0x3d, 0x6a, 0xcd, 0x98, 0xbd, 0xfd, 0xa4, 0x46, 0xbd, 0xd2, 0x0e,
    0x45, 0x3d, 0x52, 0x29, 0x3e, 0x3d, 0x50, 0x5b, 0x7a, 0x3c, 0xc3, 0x7a,
    0xa1, 0x3d, 0x7d, 0x62, 0xbc, 0x3d, 0x50, 0xb8, 0xce, 0xbc, 0x90, 0x60,
    0x07, 0x3c, 0x28, 0x5d, 0xdc, 0xbc, 0x7e, 0x72, 0x36, 0x3d, 0xc0, 0x57,
    0xb8, 0x3c, 0xfc, 0xd8, 0xf3, 0xbc, 0xdb, 0x1e, 0xb0, 0x3d, 0xa0, 0x67,
    0x5a, 0x3c, 0x88, 0xc1, 0xc2, 0xbd, 0x54, 0xd8, 0xef, 0x3c, 0x06, 0xd1,
    0xa6, 0xbd, 0x70, 0xe0, 0xc0, 0x3b, 0x6c, 0x82, 0xd1, 0x3c, 0xaf, 0x91,
    0x94, 0xbd, 0xe3, 0xd4, 0x92, 0xbd, 0x12, 0x5e, 0x6a, 0x3d, 0x15, 0x7b,
    0x21, 0xbd, 0x37, 0xbb, 0xb7, 0xbd, 0xba, 0xcd, 0x5a, 0x3d, 0xa0, 0x02,
    0x9c, 0xbc, 0x00, 0x34, 0xd6, 0xbb, 0xfb, 0x43, 0xa8, 0x3d, 0xf2, 0xa1,
    0xc0, 0xbd, 0xca, 0x4d, 0x1e, 0x3d, 0x50, 0xbe, 0xe5, 0x3b, 0xf2, 0x16,
    0xa9, 0xbd, 0xd6, 0xa8, 0x0a, 0x3d, 0xb1, 0x71, 0xaa, 0x3d, 0xee, 0x12,
    0x17, 0x3d, 0xac, 0x92, 0x9e, 0x3c, 0x6c, 0x30, 0xc8, 0xbc, 0x1a, 0x0c,
    0x74, 0xbd, 0xd1, 0x6f, 0x9e, 0xbd, 0xb9, 0xa6, 0xbe, 0x3d, 0x24, 0x60,
    0xab, 0x3c, 0x38, 0x32, 0x7e, 0xbc, 0x4a, 0x1d, 0x99, 0xbd, 0x0d, 0xe9,
    0x90, 0x3d, 0x5d, 0x23, 0xa2, 0x3d, 0xfc, 0xe6, 0xbb, 0xbd, 0xe2, 0xf1,
    0x30, 0x3d, 0x16, 0xca, 0xa9, 0xbd, 0x3e, 0x66, 0x4d, 0x3d, 0xb5, 0x2b,
    0x53, 0xbd, 0x6d, 0x8a, 0x80, 0x3d, 0x48, 0x49, 0x96, 0xbc, 0x09, 0x57,
    0xc4, 0xbd, 0x05, 0xa8, 0xb7, 0x3d, 0x11, 0xda, 0x0c, 0xbd, 0xee, 0x7d,
    0x4f, 0x3d, 0x66, 0xb0, 0x41, 0xbd, 0x1c, 0x70, 0x88, 0xbd, 0x4e, 0x36,
    0xba, 0xbd, 0x6a, 0x60, 0x00, 0x3d, 0xbe, 0xf7, 0x68, 0x3d, 0x84, 0xc0,
    0xe1, 0x3c, 0x6e, 0x55, 0x0e, 0x3d, 0x64, 0x82, 0x81, 0xbc, 0x42, 0xce,
    0x28, 0x3d, 0xf2, 0x6f, 0x67, 0x3d, 0xe2, 0x6f, 0x80, 0xbd, 0x35, 0xfc,
    0xb3, 0x3d, 0x78, 0x76, 0x94, 0x3c, 0x84, 0x46, 0xbc, 0xbd, 0xe0, 0xb5,
    0x5c, 0xbb, 0x40, 0x79, 0x13, 0xbc, 0x39, 0x75, 0xab, 0xbd, 0x38, 0x87,
    0x71, 0xbd, 0xe0, 0xa0, 0xf2, 0xbc, 0x62, 0x56, 0x6c, 0x3d, 0x44, 0x6c,
    0xf8, 0x3c, 0xee, 0x24, 0x00, 0x3d, 0x4d, 0x74, 0xb0, 0x3d, 0xd7, 0x73,
    0xb0, 0xbd, 0x8d, 0x6a, 0x61, 0xbd, 0x72, 0x24, 0xa5, 0xbd, 0x67, 0xc1,
    0x94, 0x3d, 0x51, 0x5f, 0x71, 0xbd, 0x65, 0x80, 0x0b, 0xbd, 0xf6, 0xfb,
    0x58, 0x3d, 0x6b, 0x80, 0x82, 0x3d, 0x46, 0x06, 0x5e, 0x3d, 0x6a, 0xc6,
    0x10, 0x3d, 0x1c, 0x6e, 0x82, 0xbc, 0xfe, 0x51, 0x7b, 0x3d, 0x0d, 0x3d,
    0x72, 0xbd, 0xeb, 0x89, 0xaf, 0xbd, 0x3e, 0x42, 0x38, 0xbd, 0x75, 0x59,
    0xa0, 0x3d, 0xde, 0x66, 0x85, 0xbd, 0x05, 0xc6, 0xa5, 0xbd, 0x92, 0xe9,
    0x9e, 0xbd, 0x00, 0x8b, 0xaf, 0xbc, 0x1a, 0xab, 0xa1, 0xbd, 0xc4, 0x36,
    0xfa, 0xbc, 0x96, 0xd7, 0x53, 0x3d, 0x70, 0x50, 0xe3, 0x3c, 0xb3, 0xc3,
    0xab, 0x3d, 0x44, 0x80, 0x55, 0xbd, 0xa4, 0xb8, 0x33, 0xbd, 0xe8, 0xb4,
    0x53, 0xbd, 0xce, 0x0c, 0x4b, 0x3d, 0x70, 0x36, 0xe2, 0xbb, 0x2c, 0xd5,
    0xf3, 0x3c, 0x91, 0x80, 0x2b, 0xbd, 0x7a, 0xfd, 0x44, 0x3d, 0x2c, 0xcb,
    0x99, 0xbd, 0xf2, 0x0f, 0xb8, 0xbd, 0x77, 0x15, 0xa8, 0x3d, 0xf9, 0x1e,
    0xb4, 0xbd, 0x54, 0x2d, 0xf9, 0x3c, 0xa0, 0x47, 0x8e, 0xbb, 0xcc, 0xe6,
    0xce, 0xbc, 0x78, 0xb9, 0xdd, 0xbc, 0x30, 0xa8, 0x64, 0xbc, 0x6d, 0x00,
    0xaa, 0x3d, 0x63, 0x1e, 0xb9, 0x3d, 0xe8, 0xcd, 0xa3, 0xbc, 0x8b, 0x3a,
    0x8a, 0x3d, 0x31, 0x46, 0x2b, 0xbd, 0xe6, 0xfb, 0x93, 0xbd, 0x06, 0xdc,
    0x6d, 0x3d, 0xc8, 0x24, 0xad, 0xbd, 0x6a, 0xeb, 0x28, 0x3d, 0x99, 0x83,
    0x8f, 0x3d, 0x1e, 0x3e, 0x29, 0x3d, 0x4f, 0xc4, 0xbb, 0x3d, 0x02, 0xdb,
    0x09, 0xbd, 0xe2, 0x1f, 0x5c, 0xbd, 0x17, 0xbe, 0xa3, 0xbd, 0x97, 0x1e,
    0xa9, 0x3d, 0x00, 0x36, 0x45, 0xbc, 0xf5, 0xc2, 0x6a, 0xbd, 0x5a, 0xa8,
    0x4e, 0x3d, 0x7d, 0x2e, 0x3d, 0xbd, 0x98, 0x8b, 0xc7, 0xbc, 0xda, 0x45,
    0x9c, 0xbd, 0xf0, 0xf9, 0x8f, 0xbd, 0xb5, 0xd4, 0x99, 0xbd, 0x99, 0x69,
    0x46, 0xbd, 0x23, 0x4b, 0xb0, 0x3d, 0x20, 0x36, 0x7c, 0xbc, 0xd0, 0xc4,
    0x60, 0x3c, 0xe3, 0xcc, 0x9d, 0x3d, 0x20, 0x9b, 0xbb, 0x3b, 0xe4, 0xf7,
    0x87, 0xbd, 0x80, 0xb3, 0x0b, 0xbc, 0x44, 0xd4, 0xf7, 0x3c, 0x69, 0x1a,
    0xa8, 0x3d, 0x28, 0x5f, 0x30, 0xbc, 0x26, 0x80, 0x77, 0x3d, 0x18, 0xf7,
    0x87, 0xbd, 0x2e, 0xa6, 0x09, 0x3d, 0x60, 0x04, 0x34, 0xbc, 0x68, 0x1c,
    0xe1, 0xbc, 0xf8, 0x0e, 0x8b, 0xbc, 0x1d, 0x6e, 0xa6, 0x3d, 0x3e, 0x12,
    0x44, 0x3d, 0x26, 0x89, 0x1c, 0x3d, 0xa5, 0x3b, 0x91, 0x3d, 0xc1, 0x08,
    0xa3, 0x3d, 0xa5, 0x7d, 0x0b, 0xbd, 0x19, 0x11, 0x6f, 0xbd, 0x52, 0x3c,
    0x40, 0x3d, 0x76, 0x17, 0x74, 0x3d, 0x1b, 0xb4, 0x69, 0xbd, 0x5c, 0xc4,
    0xd0, 0x3c, 0x41, 0x50, 0x81, 0x3d, 0x40, 0x12, 0xa5, 0xbd, 0x5a, 0xd9,
    0x3b, 0xbd, 0xe0, 0xca, 0x38, 0x3c, 0x50, 0xda, 0xab, 0xbd, 0xdc, 0x79,
    0x40, 0xbd, 0x9e, 0x61, 0x68, 0xbd, 0x9e, 0xfb, 0xb1, 0xbd, 0x86, 0x1c,
    0x9a, 0xbd, 0x62, 0x20, 0xb5, 0xbd, 0x70, 0x16, 0xf0, 0x3b, 0x3f, 0xc3,
    0x82, 0x3d, 0x0a, 0x0a, 0x34, 0x3d, 0x3f, 0x38, 0xc5, 0x3d, 0x13, 0x05,
    0x59, 0xbd, 0x26, 0x88, 0x45, 0xbd, 0xd7, 0x77, 0x3c, 0xbd, 0x34, 0xb6,
    0xb9, 0x3c, 0x9d, 0x41, 0xc4, 0xbd, 0xe3, 0x05, 0xba, 0xbd, 0x68, 0x20,
    0x88, 0xbc, 0x4c, 0x7e, 0x2f, 0xbd, 0x45, 0x81, 0x8d, 0x3d, 0x08, 0x77,
    0x90, 0xbd, 0x02, 0x5e, 0x24, 0x3d, 0x52, 0x17, 0x26, 0x3d, 0xda, 0x84,
    0xc3, 0xbd, 0x20, 0x71, 0x7e, 0xbc, 0xb2, 0x69, 0x36, 0x3d, 0x9c, 0xac,
    0xf9, 0xbc, 0x26, 0x35, 0x86, 0xbd, 0xd7, 0x67, 0x23, 0xbd, 0x99, 0x2e,
    0x92, 0x3d, 0x0c, 0xe1, 0xfe, 0xbc, 0x10, 0x4d, 0xb9, 0xbb, 0xb9, 0xa9,
    0x3f, 0xbd, 0xde, 0x70, 0x2e, 0x3d, 0xe3, 0x91, 0x93, 0x3d, 0xba, 0x2c,
    0x7f, 0x3d, 0x57, 0xf8, 0x14, 0xbd, 0x1f, 0x45, 0x8e, 0x3d, 0x30, 0x37,
    0xb7, 0xbd, 0x70, 0xec, 0xd4, 0xbc, 0x14, 0x8a, 0xc8, 0x3c, 0xd7, 0x3c,
    0x96, 0x3d, 0x82, 0x6c, 0x88, 0xbd, 0x18, 0xad, 0x8b, 0xbc, 0xc8, 0xae,
    0x16, 0xbc, 0x2c, 0x08, 0xec, 0x3c, 0x40, 0xd6, 0xae, 0xbc, 0x09, 0x41,
    0x96, 0x3d, 0x20, 0xce, 0x7c, 0x3b, 0x54, 0xfb, 0x9e, 0xbd, 0x77, 0xed,
    0xbf, 0xbd, 0xf0, 0x3f, 0x5f, 0x3c, 0xe9, 0x43, 0xb5, 0xbd, 0x62, 0x1b,
    0x0f, 0x3d, 0x3e, 0x9d, 0x03, 0x3d, 0x61, 0xb7, 0xa8, 0x3d, 0xdc, 0x7a,
    0xbc, 0xbc, 0xb2, 0x56, 0x82, 0xbd, 0xd9, 0x2a, 0xa1, 0x3d, 0xd6, 0x72,
    0x11, 0x3d, 0x50, 0xbe, 0xe8, 0xbc, 0x97, 0xde, 0xa4, 0xbd, 0x80, 0x39,
    0xb3, 0xbc, 0xc0, 0xb3, 0xbd, 0xba, 0xa6, 0x3d, 0xb2, 0xbd, 0x60, 0x19,
    0x58, 0xbd, 0xcd, 0x27, 0x66, 0xbd, 0xed, 0x3a, 0xb6, 0x3d, 0x78, 0x0c,
    0xa1, 0xbd, 0x80, 0xfc, 0xa7, 0xbb, 0x60, 0x7f, 0x42, 0x3c, 0x01, 0x1a,
    0x8b, 0xbd, 0x36, 0x77, 0x1e, 0x3d, 0x80, 0x0b, 0x38, 0xbc, 0x36, 0xca,
    0x9f, 0xbd, 0x40, 0x62, 0xe9, 0x3b, 0x70, 0x3a, 0xfa, 0xbc, 0x10, 0x9f,
    0x57, 0x3c, 0x72, 0x1e, 0x3f, 0x3d, 0xa8, 0x25, 0x06, 0xbc, 0xfb, 0x80,
    0x91, 0x3d, 0x19, 0xb3, 0x86, 0x3d, 0x30, 0xca, 0x30, 0xbc, 0x40, 0x03,
    0x22, 0x3b, 0xe0, 0xb6, 0x2d, 0xbc, 0xef, 0x25, 0xc1, 0x3d, 0xfa, 0xf3,
    0xaf, 0xbd, 0xc9, 0x5b, 0xb4, 0x3d, 0xac, 0x34, 0x94, 0xbd, 0x91, 0x01,
    0x8d, 0x3d, 0x92, 0x31, 0x3e, 0x3d, 0x38, 0x42, 0xd7, 0xbc, 0x54, 0x77,
    0xad, 0xbc, 0xe6, 0x44, 0x95, 0xbd, 0xff, 0x20, 0x24, 0xbd, 0x30, 0x27,
    0xb8, 0xbc, 0xfc, 0x15, 0xb0, 0xbc, 0x22, 0xde, 0x94, 0xbd, 0x35, 0xb9,
    0x81, 0x3d, 0xdc, 0x16, 0x8c, 0xbc, 0xf8, 0x5d, 0x53, 0x3c, 0x66, 0xb3,
    0x16, 0x3d, 0x1b, 0x80, 0x51, 0xbd, 0x5f, 0x6f, 0xbe, 0x3d, 0x2e, 0x8c,
    0x30, 0x3d, 0xe4, 0x7f, 0x0b, 0xbd, 0x0f, 0xba, 0x25, 0xbd, 0x40, 0xd4,
    0xc0, 0x3c, 0x2a, 0x2a, 0x08, 0x02, 0x10, 0x07, 0x42, 0x12, 0x63, 0x6f,
    0x6e, 0x73, 0x74, 0x5f, 0x66, 0x6f, 0x6c, 0x64, 0x5f, 0x6f, 0x70, 0x74,
    0x5f, 0x5f, 0x31, 0x36, 0x4a, 0x10, 0xff, 0xff, 0xff, 0xff, 0xff, 0xff,
    0xff, 0xff, 0x80, 0x02, 0x00, 0x00, 0x00, 0x00, 0x00, 0x00, 0x52, 0x29,
    0x63, 0x6f, 0x6e, 0x76, 0x65, 0x72, 0x74, 0x65, 0x64, 0x20, 0x66, 0x72,
    0x6f, 0x6d, 0x20, 0x2f, 0x63, 0x6f, 0x6e, 0x74, 0x65, 0x6e, 0x74, 0x2f,
    0x6d, 0x6f, 0x64, 0x65, 0x6c, 0x5f, 0x74, 0x65, 0x73, 0x74, 0x2e, 0x74,
    0x66, 0x6c, 0x69, 0x74, 0x65, 0x5a, 0x42, 0x0a, 0x21, 0x73, 0x65, 0x72,
    0x76, 0x69, 0x6e, 0x67, 0x5f, 0x64, 0x65, 0x66, 0x61, 0x75, 0x6c, 0x74,
    0x5f, 0x63, 0x6f, 0x6e, 0x76, 0x32, 0x64, 0x5f, 0x31, 0x35, 0x5f, 0x69,
    0x6e, 0x70, 0x75, 0x74, 0x3a, 0x30, 0x12, 0x1d, 0x0a, 0x1b, 0x08, 0x01,
    0x12, 0x17, 0x0a, 0x09, 0x12, 0x07, 0x75, 0x6e, 0x6b, 0x5f, 0x5f, 0x32,
    0x30, 0x0a, 0x02, 0x08, 0x0a, 0x0a, 0x02, 0x08, 0x0a, 0x0a, 0x02, 0x08,
    0x01, 0x62, 0x32, 0x0a, 0x19, 0x53, 0x74, 0x61, 0x74, 0x65, 0x66, 0x75,
    0x6c, 0x50, 0x61, 0x72, 0x74, 0x69, 0x74, 0x69, 0x6f, 0x6e, 0x65, 0x64,
    0x43, 0x61, 0x6c, 0x6c, 0x3a, 0x30, 0x12, 0x15, 0x0a, 0x13, 0x08, 0x01,
    0x12, 0x0f, 0x0a, 0x09, 0x12, 0x07, 0x75, 0x6e, 0x6b, 0x5f, 0x5f, 0x32,
    0x31, 0x0a, 0x02, 0x08, 0x05, 0x42, 0x04, 0x0a, 0x00, 0x10, 0x0a, 0x42,
    0x0e, 0x0a, 0x0a, 0x61, 0x69, 0x2e, 0x6f, 0x6e, 0x6e, 0x78, 0x2e, 0x6d,
    0x6c, 0x10, 0x02};

unsigned char reference_planner_pb[] = {
    0x0a, 0x05, 0x08, 0x0d, 0x10, 0xa0, 0x2e, 0x12, 0x0e, 0x08, 0xb0, 0x92,
    0x9d, 0xe4, 0x09, 0x18, 0x01, 0x22, 0x04, 0x01, 0x0a, 0x0a, 0x01, 0x12,
    0x11, 0x08, 0xeb, 0xb7, 0x95, 0xa3, 0x0c, 0x10, 0x90, 0x03, 0x18, 0x01,
    0x22, 0x04, 0x01, 0x01, 0x0a, 0x0a, 0x12, 0x11, 0x08, 0xaa, 0xaf, 0xb7,
    0xbd, 0x0d, 0x10, 0xa0, 0x06, 0x18, 0x01, 0x22, 0x04, 0x01, 0x0a, 0x08,
    0x08, 0x12, 0x10, 0x08, 0xba, 0x8b, 0xec, 0x4a, 0x10, 0xa0, 0x1a, 0x18,
    0x01, 0x22, 0x04, 0x01, 0x0a, 0x08, 0x08, 0x12, 0x0e, 0x08, 0xb5, 0xab,
    0xb1, 0x88, 0x05, 0x18, 0x01, 0x22, 0x04, 0x01, 0x08, 0x08, 0x0a, 0x12,
